000
640
000
000
000
000
000
000
000
000
000
000
6AA
634
000
000
000
000
000
000
000
000
000
000
702
000
000
000
000
762
000
000
64A
000
000
000
000
000
000
000
000
608
258
000
000
000
000
000
000
000
0C0
000
000
000
64E
000
0C6
000
000
000
000
000
000
000
000
000
000
000
000
000
5C6
000
14A
000
68E
000
000
000
000
000
000
000
0A6
000
000
000
000
000
000
000
000
000
000
136
000
000
000
000
000
668
000
000
000
000
000
30E
000
000
000
000
000
000
000
000
000
000
000
000
000
0FC
678
6B6
568
000
6A0
000
6AC
000
644
2D8
112
158
000
000
2FE
000
0A0
5C4
0D2
000
210
154
000
000
000
000
000
000
000
000
000
000
000
000
000
000
000
000
000
000
000
000
1B0
000
000
000
6EE
000
000
5E6
000
000
5F8
000
000
7C8
000
000
000
0A6
000
000
000
000
000
000
000
000
000
1CE
000
000
000
000
000
000
146
176
000
000
000
000
000
674
000
000
000
000
000
000
000
000
000
0F0
000
000
170
000
6EE
000
68A
000
000
000
110
000
000
70A
57E
386
000
000
000
000
000
000
62A
000
6A4
000
000
000
000
000
0B0
000
0D0
000
08A
000
12A
000
614
000
000
000
000
000
000
000
000
000
000
000
0B6
6B6
194
000
000
000
000
0A0
000
000
000
000
000
000
000
000
000
000
0C8
000
000
630
000
000
000
000
000
6F0
000
000
000
1CA
0C4
06E
000
000
000
000
000
000
70C
000
000
000
702
000
000
000
202
000
000
000
000
000
000
000
000
000
000
000
000
000
000
000
000
56C
0DC
000
1D2
000
000
000
0CE
000
000
000
62C
000
000
5E8
1AE
000
000
512
000
000
680
000
000
726
000
000
000
000
674
000
000
000
5FC
000
000
000
000
000
5DC
690
19C
000
000
000
000
000
000
662
6A6
000
000
088
000
000
5E0
000
000
678
000
000
000
000
13E
000
000
000
000
000
0CA
000
000
000
000
000
000
000
000
000
000
000
000
000
680
000
654
000
000
000
152
000
184
642
000
000
000
000
0EE
61C
000
000
000
000
000
000
000
000
11A
000
000
000
000
138
5D8
000
000
000
000
03E
000
000
054
000
164
000
000
000
120
000
000
000
000
000
008
000
000
5CE
000
000
000
000
000
000
000
000
148
000
000
000
000
6B8
000
000
000
000
62A
000
000
000
000
000
000
646
000
000
0E6
000
000
000
68E
000
000
000
000
5C8
65A
000
622
000
000
000
000
000
000
000
000
488
1B4
000
000
0CC
000
000
000
000
5D4
000
10A
000
000
000
000
182
000
132
000
000
000
16E
6B6
000
6BA
130
000
182
000
000
000
000
66A
000
000
000
000
000
000
000
000
000
15A
000
000
000
000
000
620
000
000
000
000
000
000
6A2
000
000
000
000
000
000
6F6
000
000
000
000
000
000
000
000
000
000
5C4
000
000
000
000
0B6
67C
000
000
71A
000
000
000
000
000
0F2
68C
000
000
6BA
000
000
000
000
000
000
000
682
22C
000
66A
14E
000
264
000
000
000
000
64A
000
000
154
000
000
000
6A2
000
5F0
000
000
000
000
000
16A
000
164
13C
000
000
000
590
000
000
652
000
658
000
68A
000
000
000
000
000
1D4
000
000
000
000
000
000
000
670
000
000
000
000
5FE
000
000
000
18E
000
000
000
000
000
186
5D6
77E
000
158
000
1BC
000
000
626
000
000
79A
000
000
000
000
000
000
1A4
000
000
000
590
000
000
682
000
000
000
000
000
000
000
000
000
000
000
63E
700
000
000
000
200
000
000
000
5D8
000
000
000
000
000
000
000
000
000
260
000
13A
000
0EE
7A2
0EC
000
000
000
000
000
7B8
000
000
000
5E2
000
000
000
000
000
000
64E
68E
13E
000
000
000
000
000
000
000
000
000
000
0EE
0AE
000
000
000
65E
000
000
000
000
000
000
174
000
000
65A
000
000
000
000
000
62E
000
606
000
18A
768
000
000
000
000
000
1B8
000
000
000
000
000
000
000
6FC
000
000
000
000
000
142
000
000
000
000
000
000
000
000
000
000
000
000
000
000
000
000
000
000
63C
000
000
000
5CE
000
000
65E
000
000
1C0
11A
000
000
000
000
000
000
000
000
000
000
618
000
6AC
0D8
000
000
65C
000
000
000
000
000
000
000
000
684
000
63E
61A
548
000
000
000
000
000
000
000
000
000
000
666
74E
000
000
622
000
000
000
1FC
5E4
000
000
000
000
000
000
000
6F2
000
000
2E6
000
000
000
000
000
000
000
682
000
000
0F2
000
000
000
000
000
000
000
000
000
63E
000
000
000
000
70C
000
000
000
000
000
000
000
6C0
000
000
000
000
000
000
000
000
000
000
000
67E
000
000
11A
000
000
71C
000
13E
6CC
000
000
000
000
000
000
000
138
1DA
250
000
000
000
000
000
000
55A
000
6C2
582
000
000
74E
000
000
000
000
000
14E
000
000
000
000
000
694
000
000
638
000
000
000
000
000
000
676
5B2
000
652
000
000
12E
000
35C
000
000
000
000
000
000
1C2
000
000
000
000
000
126
000
000
000
30A
000
000
000
000
000
000
000
000
15A
000
000
000
19A
000
000
5F6
642
000
000
000
000
000
000
000
000
000
000
000
000
000
116
000
000
000
000
162
000
000
000
6B6
000
000
000
000
000
14E
000
000
000
000
000
000
000
000
6BA
63E
000
000
000
0A6
000
674
000
000
000
18A
000
000
5C4
000
680
000
000
000
000
000
000
000
000
158
000
000
000
144
000
000
02A
000
000
000
000
000
000
000
000
000
5B8
000
000
000
7D6
000
000
604
1B6
618
000
000
6C4
0CE
000
000
000
12E
000
19C
000
6F6
000
000
000
000
000
000
000
000
000
000
000
5DC
000
000
000
000
780
000
11A
0FC
000
64E
062
000
000
0DC
11A
000
000
000
000
000
000
000
000
590
000
000
6BE
000
0B6
000
000
5FE
000
000
000
000
000
000
000
000
000
000
102
000
000
000
75A
000
000
000
000
000
000
000
000
172
000
5CC
5B8
79E
000
000
000
000
000
000
000
000
158
000
69A
67E
000
000
000
580
000
0F8
000
6A0
000
5E6
000
000
000
128
000
000
000
000
562
000
000
000
7FE
164
62E
000
000
000
000
000
000
5C8
562
000
000
000
67A
000
000
000
722
000
000
64A
196
000
000
000
000
000
000
000
698
000
000
146
000
000
000
000
698
000
000
0DA
000
000
000
000
000
5AA
750
13C
000
5CC
07C
000
000
000
000
000
184
000
000
000
000
000
000
000
13A
000
000
7D6
000
100
000
000
000
000
1C0
000
54C
538
688
666
65C
14E
000
000
000
000
000
000
000
000
000
6C4
6C2
000
13A
000
000
000
000
000
000
75C
000
594
000
6F0
000
000
000
2A2
000
000
000
694
000
000
194
000
000
000
70E
1AC
000
664
5D4
000
000
68E
1E6
000
000
000
14A
000
000
164
000
000
0DA
000
000
000
000
574
18C
000
104
000
090
000
5A4
000
0E6
000
000
000
000
716
000
000
000
000
000
4AE
000
000
000
642
000
124
000
000
670
566
768
000
4F6
676
000
000
000
000
000
19E
000
000
000
000
000
000
606
000
000
000
000
640
000
000
1B0
000
000
0B8
6FC
000
000
000
000
134
000
000
61E
000
000
000
000
000
000
000
000
000
000
0E8
000
782
000
000
000
000
18E
000
000
000
650
000
000
000
000
000
000
000
000
124
13C
000
000
00C
000
644
000
000
000
000
000
000
5C4
000
000
000
000
000
68E
000
000
62C
000
000
228
000
000
000
000
640
000
000
000
000
000
000
000
000
000
000
000
000
000
000
1EA
000
600
000
5CC
000
000
126
000
000
000
000
000
000
000
000
000
000
14E
000
000
000
000
000
11E
000
000
544
5FE
000
000
000
64A
000
000
000
000
000
0F8
662
000
000
000
5DE
000
000
000
000
658
000
000
01A
16C
000
000
160
000
1D8
000
000
0C4
000
000
144
000
1C0
000
622
000
000
7D4
6CC
000
000
000
000
6EA
000
000
000
000
1FC
000
000
000
628
000
7EC
000
692
69C
000
228
000
000
000
000
000
7AE
000
000
000
000
0E2
000
000
000
000
000
5FC
000
000
1D6
5E2
000
000
000
000
000
58C
000
000
6BA
000
15E
000
15A
000
000
000
000
000
5D2
000
000
66C
622
000
000
000
57E
000
000
000
000
000
000
000
000
000
000
000
000
000
000
672
000
000
000
000
11E
000
000
000
000
000
000
000
6FC
170
000
000
000
000
000
000
084
000
000
000
000
000
764
000
000
000
000
000
576
000
000
6A6
000
000
000
654
754
000
000
000
5EE
000
000
000
258
000
000
556
000
678
000
0CC
658
000
000
000
10A
000
000
000
000
000
000
000
000
000
000
000
000
000
000
000
000
000
000
000
000
000
000
6D2
000
17C
000
000
000
000
0D6
000
000
000
000
000
000
000
000
000
000
000
60C
14A
6BE
682
000
1D6
000
67E
6C4
694
000
000
000
000
000
000
000
000
000
000
000
000
000
520
676
000
000
000
000
17E
6C4
000
000
65C
000
000
128
000
000
000
000
000
000
000
000
000
1E2
000
000
000
000
000
000
000
000
740
000
000
000
000
000
000
000
542
000
000
142
000
126
000
000
000
000
000
000
000
000
5C8
580
000
000
000
000
000
000
6AC
000
000
000
000
000
5B8
000
000
000
712
12A
134
1C6
000
000
7A0
000
000
000
000
000
186
57C
000
000
000
1AA
000
000
68E
000
662
000
000
000
000
000
000
000
13C
000
0FA
000
000
000
000
000
000
168
12C
180
000
000
000
000
000
000
000
668
1C0
000
000
000
14A
678
000
000
000
000
000
000
186
14C
000
676
000
000
000
000
000
000
000
000
000
000
000
000
000
1CC
000
1D8
000
000
000
628
6E6
692
000
000
000
000
7DC
000

