0000000
0000000
0000000
0000000
0000000
0000000
0000000
0000000
0000000
0000000
0000000
0000000
0000000
0000000
0000000
1FC0000
0000000
1F60000
0000000
0000000
0000000
0000000
0000000
0000000
0000000
0000000
0000000
0000000
1F80000
0000000
1F60000
1FC0000
0000000
1F60000
1FA0000
0000000
0000000
0000000
0000000
0000000
0000000
000FFFA
0000000
0000000
000FFFA
0000000
0000000
000FFF8
0120000
0000000
000FFF8
0140000
0000000
008FFFE
0100000
0000000
0120000
0000000
0000000
0000000
0000000
0000000
1F20000
1E20000
1DE0000
1E6FFF8
0000000
1EC0000
1FEFFF8
0000000
0000000
0000000
0000000
1F00000
0000000
0000000
0000000
0000000
0060000
0000000
0000000
0000000
0000000
0000000
0000000
0000000
0000000
0000000
0000000
1F40000
00C0000
0080000
0000000
0000000
002FFFC
0000000
0000000
0000000
0000000
0000000
0000000
0000000
0000000
00E0000
0000000
0000000
0000000
0000000
0000000
0000000
0000000
0000000
0000000
0000000
1FE0000
0000000
0000000
0000000
0000000
0000000
0080000
0000000
0000000
0000000
0000000
0000000
0000000
0000000
0000000
0000000
0000000
0000000
0000000
0000000
0000000
0000000
0000000
004FFFC
0100000
0000000
010FFF4
0000000
0000000
000FFE8
00C0000
0000000
012FFF2
0160000
0020000
002FFFE
0220000
0000000
0060000
0060000
0080000
00A0000
0000000
0000000
000FFFE
1E60000
0000000
000FFFE
1FE0000
1E40000
1E00000
0000000
1F60000
1F40000
0000000
0000000
0000000
0000000
0000000
0000000
0000000
0000000
0080000
0000000
0000000
0000000
0000000
0000000
0000000
0000000
0000000
0000000
0020000
0000000
0000000
0000000
0000000
0000000
0000000
0000000
0000000
0000000
0000000
0000000
0000000
0080000
0000000
0000000
0000000
0000000
1F80000
0000000
0000000
1EA0000
0000000
1F80000
0000000
0000000
0000000
0000000
0000000
0000000
0000000
0000000
0000000
0000000
0000000
0000000
0000000
0000000
0000000
0000000
0000000
0000000
0000000
0000000
0000000
0000000
0000000
000FFFE
0060000
0060000
008FFFA
0000000
0000000
0000000
0020000
0000000
000FFFE
0040000
0000000
0000000
0000000
0000000
0000000
00C0000
0000000
000FFFC
0000000
0000000
000FFFA
0000000
0000000
0000000
0000000
0000000
0000000
0000000
0000000
0000000
0000000
0000000
0000000
0000000
0000000
0000000
0000000
0000000
0000000
0000000
0000000
0000000
0000000
0000000
0000000
0000000
0000000
0000000
0000000
0080000
0000000
0000000
0000000
0000000
0000000
0000000
0000000
0060000
0000000
0000000
0000000
0040000
0000000
0000000
0000000
0000000
1EC0000
0000000
0000000
1EA0000
1F00000
1F80000
1F80000
0000000
1F60000
0000000
0000000
1F20000
0000000
0000000
0000000
0000000
0000000
1FE0000
0000000
0000000
0000000
0000000
0000000
0000000
1EC0000
0000000
0000000
0000000
0000000
0000000
0000000
0000000
0000000
0000000
0000000
0000000
0000000
0000000
00A0000
0060000
02E0000
00E0000
0000000
00C0000
0080000
0140000
01C0000
01A0000
0080000
0000000
00A0000
0000000
00A0000
0000000
0040000
0040000
0020000
0000000
0000000
0000000
0000000
0000000
0000000
1FA0000
0000000
0000000
1F40000
0000000
0000000
0000000
0000000
0000000
0000000
0000000
0000000
0000000
0000000
0000000
0000000
0060000
0000000
0000000
0000000
0000000
0000000
0000000
0000000
0000000
0000000
0000000
0000000
0000000
0000000
0000000
0000000
0000000
1F40000
0000000
0000000
1FE0000
0000000
1F40000
0000000
0000000
1FA0000
0000000
0000000
0000000
0000000
0000000
1F80000
0000000
0000000
0000000
0000000
0000000
1FC0000
1EE0000
0000000
0000000
0000000
0000000
0000000
0000000
0000000
0000000
0000000
0000000
0000000
0000000
0000000
1FC0000
1FC0000
0000000
0000000
0000000
0000000
0000000
0000000
0000000
0160000
0000000
0200000
0000000
0000000
0000000
0000000
0000000
0020000
0000000
0000000
0080000
0000000
0000000
0040000
0000000
0000000
0000000
0000000
1F40000
0000000
0000000
1F00000
0000000
0000000
1FA0000
0000000
0000000
0000000
0000000
0000000
1F00000
0000000
0000000
0000000
0000000
0000000
0000000
1FA0000
0000000
0000000
0000000
0000000
0000000
0000000
0000000
0000000
0000000
0000000
0000000
0000000
0000000
0000000
0000000
0000000
0000000
0000000
0000000
0000000
0000000
0000000
1EC0000
1FE0000
0000000
0000000
0000000
0000000
0000000
0000000
1F60000
0000000
0000000
0000000
1F40000
1FC0000
1FE0000
0000000
0000000
0000000
0000000
0000000
002FFFE
0000000
0000000
0000000
1FE0000
1F80000
0000000
1F40000
1EE0000
0000000
1FA0000
1FC0000
0000000
1F40000
1FA0000
0000000
0000000
0120000
00A0000
0020000
01C0000
00C0000
0000000
0000000
0000000
0000000
0000000
0000000
0000000
0000000
0160000
0000000
0000000
0000000
0000000
0000000
0040000
0000000
0000000
0000000
1FC0000
0000000
0000000
1FC0000
1FA0000
0000000
0000000
0000000
0000000
0000000
0000000
0000000
1EC0000
0000000
0000000
0000000
0000000
0000000
0000000
0000000
0000000
0000000
0000000
0000000
0000000
0000000
0000000
0000000
0000000
0000000
0000000
0000000
0000000
0000000
0000000
0000000
1FE0000
1FE0000
0000000
0000000
0000000
0000000
0000000
0000000
0000000
0000000
0000000
0000000
0000000
0000000
0020000
0000000
0000000
0040000
0000000
0000000
00C0000
0000000
0000000
0000000
1EC0000
0000000
0000000
0000000
1FA0000
0000000
0000000
0000000
0000000
0000000
0000000
0000000
0000000
0000000
0000000
0000000
0000000
0000000
00A0000
0180000
0000000
0000000
0000000
0000000
0000000
0100000
00A0000
0000000
0000000
0000000
0000000
0000000
0000000
0000000
00E0000
0000000
0000000
0000000
0000000
0000000
0000000
0000000
1FC0000
0000000
0000000
0000000
0000000
0000000
1E60000
0000000
0000000
0000000
0000000
1FE0000
0000000
0000000
0000000
0000000
0000000
0000000
0000000
0000000
0000000
0000000
0000000
0000000
0040000
00E0000
0000000
0000000
0000000
0000000
0000000
0000000
0000000
0040000
0000000
0000000
0000000
0000000
0000000
0000000
0080000
0000000
0000000
0000000
0020000
0000000
0000000
0000000
0000000
0000000
0000000
0000000
0000000
0000000
0000000
0000000
0020000
0000000
0000000
0000000
0000000
0000000
0180000
0000000
0000000
0000000
0000000
0000000
0000000
0280000
0000000
0000000
0020000
0000000
0000000
0000000
0060000
0000000
0000000
0000000
0000000
0000000
0000000
00C0000
0080000
0280000
0000000
0000000
00A0000
0000000
0000000
0180000
0000000
0000000
0020000
0000000
000FFFE
000FFFC
0000000
000FFFE
000FFFC
00A0000
000FFFE
000FFFE
0000000
1F60000
0000000
0000000
0000000
0000000
0000000
0000000
0000000
0000000
0000000
0000000
0000000
0000000
0000000
0000000
0000000
0000000
0000000
0000000
0000000
0000000
0000000
0000000
0000000
00E0000
0000000
0000000
0000000
0000000
0000000
0000000
0000000
0000000
0000000
0000000
0000000
000FFFE
0000000
0000000
0000000
0000000
0000000
1FC0000
1FC0000
1FCFFE8
0000000
0000000
000FFF0
0000000
0000000
0160000
0000000
0000000
0000000
0000000
0000000
0000000
0000000
0000000
0000000
0000000
0000000
0000000
0020000
0000000
0000000
0000000
0000000
0000000
1FA0000
0000000
0000000
0000000
0000000
0000000
0040000
0120000
0000000
0040000
0100000
0000000
0100000
0060000
0020000
0000000
000FFFE
0000000
0000000
000FFF8
000FFFC
000FFF8
000FFF6
000FFFE
00AFFF8
000FFFC
0000000
1FE0000
0000000
1FE0000
0000000
0000000
0000000
0000000
0000000
0000000
0000000
0000000
0000000
0000000
0000000
0000000
0000000
0000000
0000000
0000000
0000000
0000000
0000000
0000000
0000000
0000000
0000000
0000000
0000000
1FE0000
0000000
0000000
0000000
0000000
0000000
0000000
0000000
1F40000
1F60000
0000000
0000000
0000000
1F60000
1FC0000
0000000
1FC0000
0000000
1FE0000
1FCFFEC
0000000
0000000
0000000
0000000
1FE0000
0000000
0000000
1F60000
0000000
0000000
0000000
0000000
1F00000
0000000
1FA0000
0000000
0000000
0040000
0000000
0000000
0000000
0000000
0000000
0000000
0000000
0000000
0000000
0000000
0000000
0000000
0000000
0000000
0000000
0000000
0000000
0000000
0000000
000FFFE
000FFFE
0000000
000FFFA
000FFFE
0000000
000FFFC
0060000
00AFFFE
000FFFC
0000000
1FE0000
0000000
1FA0000
0000000
0000000
0000000
1EA0000
1F40000
0000000
1F80000
0000000
0000000
0000000
0000000
0000000
0000000
0000000
0000000
1FE0000
0000000
0000000
0000000
0000000
0000000
0000000
0000000
0000000
1FC0000
1F40000
1FC0000
0000000
0000000
0000000
0000000
0000000
0000000
0000000
0000000
0000000
0000000
1FA0000
1E80000
0000000
0000000
0000000
0000000
0000000
1FC0000
0000000
1FA0000
1FC0000
0000000
1FC0000
0000000
1EA0000
1E00000
1F20000
1E80000
1EE0000
1F60000
1F80000
1E40000
1FE0000
1E40000
1FE0000
0000000
0000000
0000000
0000000
0000000
0000000
0000000
1FA0000
0000000
0000000
1F20000
0000000
1FA0000
1FE0000
0000000
1F80000
0000000
0000000
0000000
0000000
000FFFE
0000000
000FFFC
000FFFE
000FFFE
0000000
0000000
0000000
000FFFE
000FFF0
0000000
1FA0000
0000000
0000000
1FC0000
0000000
0000000
1E60000
0000000
0000000
1FEFFFE
0000000
0000000
0000000
0000000
000FFF8
0000000
0000000
0000000
0000000
0000000
0000000
0000000
00C0000
00A0000
0000000
0000000
0000000
1FE0000
1FA0000
1FC0000
0000000
0000000
0000000
0000000
0000000
0000000
0000000
0000000
1FC0000
0000000
0000000
1FE0000
0000000
0000000
1E80000
0000000
0000000
0000000
0000000
0000000
0000000
0000000
0000000
0040000
0000000
1FC0000
0000000
1CE0000
1DC0000
1E60000
1C20000
1D80000
1E20000
1E80000
1F00000
1DE0000
0000000
0000000
1FC0000
0000000
1FA0000
0000000
1EE0000
0000000
1EE0000
0000000
0000000
1E60000
1F60000
0000000
1F20000
1FE0000
0000000
1FC0000
0000000
0000000
0000000
0000000
0000000
0000000
0000000
0000000
0000000
00C0000
0000000
0000000
0000000
0020000
00C0000
0000000
0000000
0040000
0000000
0000000
0000000
0000000
0000000
0140000
0000000
0000000
0040000
0000000
0000000
0000000
1FE0000
0000000
0000000
0060000
0000000
0000000
0000000
0000000
0000000
1FE0000
1FC0000
0000000
0000000
1EE0000
0000000
0000000
0000000
0000000
1FA0000
0000000
0000000
0000000
0000000
1F60000
0000000
0000000
1E20000
0160000
01C0000
0000000
0260000
0260000
0120000
0120000
0160000
0140000
0000000
0000000
0000000
0000000
1C80000
1F60000
0000000
1FE0000
1F80000
1EE0000
0000000
0000000
1D40000
1CC0000
1DA0000
1F80000
1EA0000
1EA0000
1F60000
1FA0000
1EC0000
0000000
0000000
0000000
1FE0000
1F80000
0000000
1FE0000
0000000
1EE0000
0000000
0000000
0000000
0000000
1F20000
0000000
0000000
0000000
0000000
0000000
0000000
0080000
0000000
00E0000
01A0000
0000000
00A0000
0080000
0000000
0000000
0000000
0000000
0000000
0000000
0000000
0000000
0000000
0000000
0000000
0000000
0000000
1F00000
0000000
0000000
0000000
0000000
0000000
0040000
0040000
0000000
0000000
0000000
0000000
0000000
0000000
0000000
0000000
0000000
0000000
0000000
1FA0000
1E60000
0000000
1EC0000
1F80000
0000000
0000000
0000000
00C0000
0000000
0160000
01E0000
02C0000
0380000
0340000
0220000
0140000
0140000
0060000
0000000
0000000
0000000
1D20000
0000000
1F40000
1F00000
1E60000
0000000
1C40000
1D60000
1CA0000
1EC0000
1D80000
0000000
1E20000
1DC0000
1F40000
1FA0000
1F60000
0000000
1EC0000
0000000
0000000
0000000
1F80000
0000000
0000000
0000000
0000000
0000000
0000000
0000000
0000000
0000000
0000000
0000000
0000000
0000000
0060000
0120000
00C0000
0060000
0120000
00C0000
0000000
0000000
0000000
0000000
0000000
0000000
0000000
0000000
0060000
0000000
0000000
1FC0000
1EC0000
0000000
0000000
0000000
0000000
0000000
0020000
0000000
0200000
0000000
0000000
0000000
0000000
0000000
0000000
0000000
0000000
0000000
1DE0000
1E40000
0000000
0000000
1E00000
1F40000
1E60000
0000000
1FE0000
0000000
0000000
0000000
0000000
0160000
0000000
0240000
03A0000
0440000
05C0000
0460000
0580000
0120000
03A0000
0080000
0000000
0000000
0000000
0000000
0000000
0000000
1F00000
0000000
1E20000
0000000
0000000
0000000
1E60000
0000000
0000000
0000000
1F80000
0000000
0000000
0000000
0000000
0000000
0000000
0000000
0000000
000FFFC
0000000
0000000
0040000
0000000
0000000
0000000
0000000
1EA0000
0000000
0000000
0000000
0000000
0000000
0000000
0060000
0000000
0000000
0000000
0000000
0000000
0020000
0000000
00E0000
01C0000
0140000
0000000
0000000
0000000
0000000
0000000
0000000
0000000
0000000
0000000
0020000
0060000
0000000
0000000
0000000
0000000
0000000
0000000
0000000
0000000
0000000
0000000
0000000
1EA0000
0000000
1E80000
0000000
1F60000
1FC0000
1FE0000
1E40000
1AE0000
0000000
1C60000
1EA0000
0000000
1FE0000
0140000
01E0000
00C0000
05A0000
0740000
0580000
04A0000
0420000
0440000
02C0000
0120000
0000000
0000000
0040000
0000000
0000000
1FE0000
1F80000
0000000
0000000
0000000
0000000
0000000
0000000
0000000
0000000
0000000
0000000
0000000
0000000
0000000
000FFFE
0000000
0000000
000FFFA
0000000
0000000
0000000
0000000
0000000
0000000
0000000
0000000
1F00000
0000000
1F80000
0020000
0000000
0000000
0000000
0000000
1EA0000
1F60000
000FFFC
0000000
00E0000
00A0000
0240000
0100000
00E0000
0000000
0000000
0000000
1FC0000
0000000
1F80000
0000000
0000000
0000000
0020000
0000000
0000000
1FE0000
0000000
0000000
0000000
0000000
0140000
0000000
00E0000
01E0000
0000000
0060000
0000000
0000000
00C0000
0000000
1E80000
0000000
0000000
1C00000
1CE0000
1B80000
1E80000
1BE0000
1F80000
0000000
0000000
0000000
03A0000
03C0000
0160000
0420000
0380000
03E0000
01E0000
0340000
0060000
01C0000
00C0000
0000000
0000000
00A0000
0000000
0000000
0000000
0000000
0000000
0000000
0000000
0000000
0000000
0000000
0000000
0000000
0000000
0000000
0000000
0000000
0000000
0000000
0000000
0000000
0000000
0000000
0000000
000FFFE
0000000
0000000
1E60000
0000000
0000000
0020000
0000000
0000000
0000000
0000000
1F60000
1EE0000
1FEFFFC
0000000
0000000
0000000
0100000
0020000
00E0000
0000000
0000000
0000000
0000000
0000000
1FE0000
0000000
0000000
0000000
0000000
0000000
0000000
0000000
0000000
0000000
0160000
0000000
0000000
0160000
0000000
000FFFC
00C0000
01C0000
000FFFE
0060000
01A0000
0060000
0000000
0000000
0000000
1AC0000
1E60000
1E40000
1B20000
1C60000
1D80000
1D40000
1FC0000
1FE0000
0000000
0000000
0060000
0420000
0340000
02C0000
0540000
0300000
02C0000
0240000
0380000
0220000
0040000
0000000
0000000
0000000
0060000
0000000
0000000
0000000
0000000
0000000
0000000
0000000
0000000
0000000
0000000
0000000
0000000
0000000
0000000
0000000
0000000
0000000
0000000
0000000
0000000
000FFF2
0000000
0000000
000FFF8
0000000
0000000
0000000
0000000
0000000
0000000
1F20000
1F80000
0000000
1F8FFFC
0000000
0000000
0000000
00A0000
0000000
0000000
0000000
0000000
0000000
1FC0000
1F20000
1FA0000
1FC0000
1FA0000
1FA0000
0000000
0000000
1F40000
1FC0000
0000000
0000000
0000000
0000000
0000000
0000000
0000000
01E0000
0000000
00E0000
0000000
00C0000
0360000
0040000
0000000
00A0000
0040000
0000000
1EA0000
0000000
1BC0000
1B20000
1E20000
1B20000
1DA0000
1C60000
0000000
1DE0000
1F00000
00C0000
0000000
0000000
01C0000
0120000
0100000
03A0000
03A0000
0200000
0340000
0200000
01A0000
0060000
0000000
0140000
0000000
0000000
0000000
0000000
0000000
0000000
0000000
0000000
0000000
0000000
0000000
0000000
0000000
0000000
0000000
0000000
0000000
0000000
0000000
000FFFC
0000000
000FFFE
000FFF2
0000000
0000000
0000000
0000000
1FA0000
0000000
1FA0000
1FC0000
1FC0000
1E8FFF8
0000000
1FA0000
1FE0000
0000000
0000000
0000000
0000000
0000000
0000000
0000000
1FE0000
0000000
1FC0000
1FA0000
1F80000
0000000
0000000
1EC0000
0000000
0000000
0000000
0000000
0000000
0000000
0000000
0000000
0140000
01A0000
01E0000
01E0000
0340000
0360000
00A0000
0140000
02E0000
0120000
0040000
0080000
00C0000
1D40000
1EA0000
1E40000
1CC0000
1BA0000
1D20000
1C20000
1CE0000
1E00000
0000000
0000000
0000000
00A0000
0000000
0000000
02A0000
0000000
01C0000
0060000
0220000
0340000
0000000
0320000
0360000
0000000
0000000
0000000
0000000
0000000
0000000
0000000
0000000
0000000
0000000
0000000
00E0000
0000000
0000000
0000000
0000000
0000000
0000000
1F60000
0000000
0000000
0000000
000FFFE
0000000
0000000
0000000
1FC0000
0000000
0000000
0000000
0000000
0000000
0000000
0000000
0000000
0000000
1FE0000
0000000
0000000
0000000
0000000
0000000
0000000
0000000
0000000
0000000
1FA0000
1FC0000
0000000
1F40000
0000000
0000000
0000000
0000000
0000000
0000000
0000000
0000000
0000000
0000000
0120000
0000000
0020000
00A0000
00A0000
0040000
0480000
0340000
0100000
02E0000
0120000
0180000
0000000
0060000
0020000
1EC0000
1C60000
1F40000
1C00000
1C40000
1BA0000
1FA0000
1D80000
0000000
0000000
0000000
0000000
0000000
0000000
0000000
0140000
0040000
0220000
00E0000
0000000
0000000
0000000
0000000
0000000
0000000
0000000
00A0000
0000000
0000000
0000000
0000000
0000000
0040000
0000000
0000000
0000000
1FE0000
0000000
0000000
1FE0000
1F80000
0000000
0000000
0000000
0000000
1FA0000
0000000
1F80000
0000000
0000000
0000000
0000000
0000000
0000000
0000000
0000000
0000000
0000000
0000000
0000000
0000000
0000000
0000000
1FA0000
1FE0000
0000000
0000000
0000000
0000000
0000000
1FE0000
0000000
0000000
0000000
0000000
0000000
0000000
0000000
0000000
0000000
0020000
0000000
0000000
0000000
0000000
0000000
01C0000
0160000
0080000
0100000
0020000
00C0000
0120000
0000000
0040000
0040000
1E00000
0000000
1FC0000
1C40000
1D40000
1B80000
1D80000
1FE0000
1E00000
0000000
0000000
0000000
0000000
1FE0000
0000000
0080000
0020000
0000000
0000000
00C0000
0000000
0000000
0000000
0000000
0000000
0000000
0000000
0000000
0000000
0000000
0000000
0000000
0000000
0000000
0000000
0000000
1F80000
1F20000
1F00000
0000000
1FC0000
0000000
0000000
0000000
0000000
1FC0000
1FC0000
1F80000
0000000
0000000
1FC0000
0000000
0000000
0000000
0000000
0000000
0000000
1FC0000
1FE0000
0000000
0000000
0000000
0000000
0000000
1FC0000
0000000
1F20000
0000000
0000000
0000000
1F00000
0000000
1FC0000
0000000
1F40000
0000000
0000000
0000000
1E80000
0000000
1E80000
0000000
0000000
1F00000
1E40000
1F60000
1EC0000
0000000
0000000
0120000
0420000
03A0000
0320000
02A0000
0000000
0000000
0000000
1F00000
0000000
1FE0000
1B20000
1D80000
0000000
1D00000
1FE0000
0000000
0000000
1D20000
1F00000
1E80000
1D00000
0000000
0000000
0000000
0000000
0000000
0000000
0000000
0040000
0000000
0000000
0000000
00C0000
0000000
0000000
0000000
0000000
0000000
0000000
00E0000
0000000
0000000
0000000
1F80000
1FE0000
0000000
0000000
0000000
0000000
0000000
0000000
0000000
1FE0000
0000000
1FE0000
0000000
0000000
0000000
1FE0000
0000000
0000000
0000000
0000000
0000000
1FE0000
0000000
0000000
0000000
0000000
1F00000
1FE0000
1F60000
0000000
1F80000
1F60000
1F80000
0000000
0000000
0000000
0000000
0000000
1FE0000
0000000
0000000
0000000
0000000
1E80000
0000000
0000000
0000000
0000000
1EA0000
1EE0000
0060000
0020000
0000000
0160000
01C0000
0160000
0080000
02C0000
0280000
0020000
0000000
0060000
0000000
1F60000
1E40000
1E40000
0000000
1E40000
0000000
0000000
0000000
0000000
1DA0000
0000000
0000000
0000000
0000000
0000000
0000000
0000000
0000000
0000000
0000000
0000000
00A0000
0000000
0000000
0000000
0020000
0100000
0100000
00E0000
0040000
0020000
00C0000
0000000
0000000
0000000
0060000
0000000
0000000
01A0000
0000000
0000000
1FE0000
1FC0000
1FC0000
1FE0000
1FE0000
1FE0000
1FE0000
1FA0000
0000000
0000000
1FC0000
0000000
0000000
1FC0000
0000000
0000000
0000000
0000000
0000000
1F40000
0000000
0000000
1F80000
0000000
0000000
0000000
0000000
0000000
0000000
0000000
0000000
0000000
0000000
0000000
0000000
0000000
1F80000
0000000
1E60000
0000000
1F40000
1E80000
1F60000
0000000
1FC0000
0100000
00A0000
0000000
0080000
00C0000
0280000
0140000
0060000
0000000
1F40000
0000000
1EE0000
1E60000
1EA0000
0000000
0000000
0000000
1FE0000
0000000
0000000
1DE0000
0000000
0000000
1F20000
0000000
0000000
0000000
0000000
0000000
0000000
00C0000
0000000
0080000
0020000
0000000
0040000
00E0000
0080000
0000000
0040000
0000000
0000000
01A0000
0000000
0000000
0060000
0000000
0020000
00C0000
0000000
0040000
1FA0000
0000000
0000000
1FC0000
1FE0000
0000000
0000000
1FE0000
0000000
0000000
1F00000
0000000
0000000
0000000
0000000
0000000
0000000
0000000
0000000
0000000
0000000
0000000
0000000
0000000
00C0000
0000000
0000000
0000000
0000000
0000000
0000000
0000000
0000000
0000000
0000000
0000000
0000000
1F60000
0000000
1F20000
1EE0000
1F80000
1F20000
1FA0000
1F20000
00C0000
00C0000
0000000
00A0000
01C0000
0020000
0080000
0040000
0000000
0000000
0000000
1F20000
0000000
0000000
0000000
0000000
1F20000
1DA0000
0000000
0000000
1FE0000
0000000
0000000
1FC0000
0000000
0000000
0000000
0000000
0000000
0000000
0000000
0000000
0000000
0000000
0000000
0060000
0000000
0000000
0060000
0000000
0000000
0000000
0000000
0000000
0000000
0000000
0000000
0000000
0000000
0000000
0000000
1FC0000
0000000
0000000
1EC0000
0000000
0000000
0000000
0000000
0000000
0000000
0000000
0000000
0000000
0000000
0000000
0000000
0020000
0000000
0020000
0020000
0000000
00C0000
0180000
0000000
0000000
0000000
01A0000
0000000
0000000
0000000
0000000
0000000
0000000
0000000
0000000
0000000
1E00000
0000000
1F60000
1F80000
1FE0000
1E60000
1F80000
0000000
0000000
0000000
0000000
0000000
0180000
0140000
0000000
0000000
0000000
0000000
0000000
0000000
0000000
0000000
0000000
0000000
1E00000
0000000
1FC0000
0000000
1F00000
1FA0000
0000000
0000000
0000000
0000000
1F20000
0000000
0000000
0000000
1E20000
0000000
0000000
1F60000
0000000
1FE0000
0000000
0000000
0000000
0000000
0000000
0000000
0000000
0000000
1F60000
0000000
1F40000
0000000
0000000
0000000
0000000
0000000
0000000
0000000
0000000
0000000
0000000
0000000
0000000
0000000
0000000
0000000
0000000
0000000
00C0000
0000000
0120000
0020000
0000000
0000000
00A0000
0000000
0000000
0000000
0000000
0000000
01A0000
0000000
0000000
0120000
0000000
0000000
0000000
0000000
0000000
0000000
0000000
0000000
0000000
0000000
0000000
1F60000
1FC0000
0000000
0000000
1E60000
0000000
0000000
0000000
0000000
0000000
0000000
0020000
0000000
0000000
0060000
0000000
0000000
0000000
0000000
1E80000
1F00000
1D60000
1D80000
1FC0000
0000000
0000000
0000000
0000000
0000000
0000000
0000000
0000000
0000000
0000000
0000000
1E20000
0000000
0000000
1FC0000
0000000
1F00000
0000000
0000000
0000000
0000000
0000000
0000000
0000000
1FA0000
0000000
1F00000
1F60000
0000000
0000000
0000000
0000000
1FC0000
0000000
0000000
0000000
0000000
0000000
0000000
0020000
0020000
0000000
01C0000
0000000
0000000
0000000
0120000
0000000
0000000
0000000
0000000
0000000
0000000
0000000
0000000
0040000
0000000
0000000
0000000
0000000
0000000
0000000
0000000
0000000
0000000
0000000
0080000
0080000
0000000
0000000
0000000
0000000
0000000
1FC0000
0000000
1EA0000
0000000
0000000
0000000
0000000
0000000
01E0000
00E0000
0000000
0140000
0000000
00C0000
0000000
0000000
0000000
0000000
0000000
0000000
1EA0000
0000000
0000000
0000000
0000000
1FE0000
0000000
0000000
1FA0000
0000000
0000000
1E80000
0000000
1F40000
0000000
0000000
0000000
0000000
0000000
0000000
0000000
0000000
0000000
0000000
0000000
0000000
0000000
1FA0000
0000000
1EA0000
0000000
0000000
0000000
0000000
0000000
0000000
0000000
0000000
0000000
0000000
0000000
0000000
0000000
0000000
0000000
0020000
00E0000
0000000
0000000
0000000
0000000
0000000
0000000
0000000
0000000
0000000
0000000
0000000
0000000
0000000
0000000
0000000
0000000
0000000
0000000
0000000
0000000
0000000
0000000
0000000
0000000
0000000
1FE0000
0000000
1F60000
1FA0000
1F20000
0000000
1F20000
0000000
0000000
0000000
0000000
0000000
0000000
0000000
0000000
0000000
01A0000
0000000
0000000
0000000
0000000
0000000
0000000
0000000
0000000
1EA0000
0000000
0000000
1EC0000
0000000
0000000
1F60000
1F80000
0000000
0000000
0000000
0080000
0000000
0000000
0000000
0000000
0000000
0000000
0000000
0000000
0000000
0000000
0000000
0000000
0000000
0000000
0000000
0000000
0000000
0000000
0000000
0000000
0000000
0000000
0000000
0060000
01A0000
0000000
0000000
00A0000
0000000
0000000
0100000
0000000
0000000
0000000
0000000
0000000
0000000
0000000
0000000
0000000
0000000
0000000
0000000
0000000
0000000
0000000
0000000
0000000
0000000
0000000
0000000
0000000
0000000
0000000
0000000
0000000
0000000
0000000
0000000
0000000
0000000
0000000
1F60000
1F20000
1F00000
1E60000
0000000
1FC0000
0000000
1F00000
0000000
0000000
0000000
0040000
0080000
0000000
0000000
0000000
0000000
0000000
0000000
0000000
0000000
0000000
0000000
1EC0000
0000000
0000000
0000000
0000000
0000000
0000000
0300000
0000000
0000000
02A0000
0000000
0000000
0000000
0000000
0000000
00E0000
0000000
0000000
0000000
0000000
0000000
0000000
0000000
0000000
0000000
0000000
0000000
0000000
0000000
0000000
0160000
0000000
0000000
0000000
01A0000
0000000
00C0000
01C0000
00C0000
0000000
00C0000
0040000
0000000
0060000
0060000
0000000
0000000
0100000
0000000
0040000
0000000
0000000
0000000
0060000
0000000
0000000
0000000
0100000
0100000
0040000
0240000
0000000
0000000
0000000
0020000
0000000
00C0000
0000000
0000000
0000000
0000000
0020000
1F80000
1F40000
0000000
1FC0000
1FC0000
0000000
1F20000
1F60000
0000000
1EE0000
1F60000
1FE0000
0000000
0000000
0000000
0000000
0000000
0000000
0120000
0000000
0000000
0000000
0120000
0000000
0000000
0000000
0000000
0000000
0000000
0000000
0280000
0020000
0080000
00C0000
0220000
0000000
0000000
0000000
0000000
0000000
0000000
0000000
0000000
0000000
0000000
0000000
0000000
1FC0000
0000000
0000000
0000000
0040000
0000000
0020000
0080000
0080000
0100000
0000000
1FE0000
0000000
0000000
1FE0000
0000000
0000000
0000000
0000000
0000000
1FC0000
0000000
0000000
0000000
0000000
0000000
1FE0000
0000000
0000000
0000000
0000000
0000000
0000000
0000000
0020000
0000000
0000000
0000000
0000000
0000000
0000000
0000000
0000000
0000000
0000000
0000000
0000000
0000000
0000000
0000000
0000000
0000000
1FC0000
0000000
0000000
0000000
0000000
0000000
0000000
0000000
1EA0000
0000000
0000000
0000000
0000000
0000000
0000000
0000000
0000000
1F40000
0000000
000FFFE
0000000
0000000
0000000
0000000
0000000
0000000
0000000
0000000
0000000
0000000
0000000
0000000
0000000
0000000
0000000
0000000
0000000
0000000
0000000
0000000
1FC0000
0000000
0000000
1FE0000
0000000
0000000
0000000
0000000
0000000
0000000
0000000
1F6FFF6
0000000
0000000
0000000
0000000
0000000
0000000
0000000
0000000
0000000
0000000
0000000
0000000
0000000
0000000
0000000
1F40000
0000000
0000000
1F20000
1FE0000
0000000
0000000
0000000
0000000
0000000
0000000
0000000
0000000
0000000
0000000
0000000
0000000
0000000
0000000
0000000
0000000
0000000
0000000
0000000
0000000
1E40000
1FE0000
0000000
0000000
0000000
0000000
0000000
0000000
0000000
1F00000
0000000
0000000
0000000
0000000
0000000
0000000
0000000
0000000
0000000
0000000
0000000
0000000
0000000
0000000
0000000
0000000
0000000
0000000
0000000
0040000
0000000
0000000
0000000
00C0000
0000000
0000000
0000000
0000000
0000000
0000000
0000000
0000000
0000000
0000000
0000000
0000000
1FA0000
0000000
0000000
0000000
0000000
0000000
0000000
0000000
0000000
0000000
0000000
0000000
0080000
0060000
0040000
0000000
0000000
0000000
0000000
0000000
0000000
0000000
0000000
0000000
0000000
0000000
0000000
0000000
0000000
0000000
0000000
0000000
0000000
0000000
0000000
0000000
0000000
0000000
0200000
0100000
0040000
0200000
0000000
0000000
0000000
0000000
0000000
0000000
0000000
0000000
1F00000
0000000
0000000
1D40000
0000000
0000000
0000000
0000000
0000000
0000000
1F40000
0000000
0000000
0000000
0000000
0000000
0000000
0000000
0000000
0000000
0000000
0000000
0000000
0000000
0000000
0000000
0000000
0120000
0000000
01A0000
0000000
0000000
0000000
01A0000
0000000
0000000
00C0000
0000000
0000000
0000000
0000000
0000000
0000000
0000000
0000000
0000000
0000000
0000000
0000000
0000000
0000000
0000000
0000000
0000000
0000000
0000000
0000000
0000000
0000000
0000000
0000000
0000000
0000000
0000000
0000000
0000000
0000000
0000000
0000000
0000000
0000000
0000000
0000000
0000000
0000000
0000000
0000000
0000000
0000000
00E0000
0000000
0000000
0060000
0000000
0000000
0000000
0000000
0000000
0000000
0000000
0000000
0000000
0000000
0000000
1F00000
0000000
0000000
1FC0000
0000000
1E20000
0000000
0000000
0000000
0000000
0000000
0000000
0000000
0000000
1F60000
0000000
0000000
0000000
0000000
0000000
0000000
0000000
0000000
0000000
0000000
0000000
0000000
0000000
0000000
0000000
0000000
0000000
0000000
0000000
0000000
0000000
0000000
0000000
0000000
0000000
0000000
0000000
0000000
0000000
0000000
1FE0000
0000000
0000000
0000000
0000000
0000000
0000000
0000000
0000000
0000000
0000000
0000000
0000000
0000000
0000000
000FFFE
0000000
0000000
0000000
0000000
0000000
0000000
0000000
0000000
0000000
0000000
0000000
0000000
0000000
0000000
0000000
0000000
0000000
0000000
0000000
0000000
0000000
0000000
0000000
0000000
0040000
0060000
0000000
0000000
0160000
0000000
0000000
0000000
0000000
0000000
0000000
0000000
0000000
1EC0000
0000000
0000000
1F60000
0040000
0060000
0000000
0000000
0020000
0000000
0000000
0000000
0000000
0000000
0000000
0000000
0080000
0020000
0000000
0000000
0060000
0000000
0000000
01C0000
0020000
0000000
0240000
00C0000
0000000
0020000
0000000
0000000
0000000
0000000
0000000
0000000
0000000
0000000
0000000
0000000
0000000
0000000
0000000
0000000
0000000
0000000
0000000
0000000
000FFFE
0000000
0000000
0000000
0000000
0000000
0000000
0000000
00A0000
0040000
0000000
0000000
0000000
0000000
0000000
0000000
0000000
0000000
0000000
0000000
0000000
0000000
0000000
0000000
0000000
0000000
0000000
0000000
0000000
0000000
0000000
0000000
0000000
0000000
0000000
0000000
0000000
0000000
0060000
0000000
0000000
0000000
0000000
0000000
0000000
0000000
0000000
0000000
0000000
0000000
0000000
0000000
0000000
0000000
0000000
0000000
0000000
0000000
0000000
0000000
0000000
0000000
0000000
0000000
0060000
0080000
0000000
0020000
0160000
00E0000
0000000
0080000
0000000
0000000
0140000
0020000
0000000
0000000
0040000
0000000
0000000
0000000
0000000
0000000
0000000
0000000
0140000
0000000
0000000
0000000
0000000
0000000
0000000
0000000
0000000
0000000
000FFFE
0000000
0000000
000FFFE
0000000
0020000
000FFFE
0000000
0040000
0080000
0000000
0000000
0000000
0000000
0000000
0000000
0000000
0000000
0000000
0000000
0000000
0000000
0000000
0000000
0000000
0040000
0000000
0020000
0000000
0000000
0020000
0000000
0000000
0000000
0000000
0000000
0000000
0000000
0020000
0000000
0000000
0000000
0000000
0000000
0000000
0000000
0000000
0000000
0000000
0000000
0000000
0000000
0000000
0000000
0000000
1FE0000
0000000
1FE0000
0000000
0000000
0000000
0000000
0000000
0000000
0000000
0000000
0000000
0000000
00E0000
0000000
0040000
0080000
0000000
0000000
0000000
0000000
0000000
0000000
0000000
0000000
0000000
0000000
0000000
0020000
0020000
0000000
0280000
0020000
0000000
0000000
0000000
0000000
0000000
0000000
0000000
0000000
0000000
0000000
0000000
0000000
0000000
0000000
000FFFE
0000000
0000000
0000000
0000000
0000000
0000000
0000000
0000000
0000000
0000000
0000000
0000000
0000000
0000000
0000000
0000000
0000000
0000000
0020000
0000000
0000000
0000000
0000000
0000000
0000000
0000000
0000000
0000000
0000000
0080000
0000000
0000000
0000000
0000000
0000000
0000000
0000000
0000000
0000000
1F00000
0000000
0000000
0000000
0000000
0000000
0000000
0000000
0000000
0000000
0000000
0000000
0000000
1FA0000
1E20000
0000000
0000000
0000000
0000000
0000000
0000000
0000000
0000000
0000000
0000000
0000000
0000000
0000000
0000000
0000000
0000000
0000000
0000000
0000000
0000000
0000000
0020000
0040000
0080000
0000000
02C0000
0000000
0000000
0000000
0000000
0000000
0000000
0000000
0000000
0000000
0140000
0000000
0000000
0000000
0000000
0000000
0000000
0000000
0000000
0040000
0000000
0000000
0000000
0000000
0000000
0000000
0000000
0000000
0000000
0000000
0000000
0000000
0000000
0000000
0000000
0080000
0000000
0000000
0020000
0060000
0060000
0000000
0000000
0140000
0000000
0000000
0000000
0000000
0000000
0000000
0000000
0000000
0000000
0000000
0000000
0000000
0000000
0000000
0000000
0000000
0000000
0000000
0000000
0000000
0000000
0000000
0000000
0000000
0000000
1F60000
0000000
0000000
0020000
0000000
0000000
0040000
0000000
0000000
0000000
0000000
0000000
0000000
0000000
0000000
0000000
0000000
0000000
0000000
0000000
0000000
0000000
0020000
0000000
0000000
0020000
0000000
0000000
0000000
0000000
0000000
0000000
0000000
0000000
0000000
0000000
0080000
0000000
0000000
0000000
0000000
0000000
0000000
0020000
0000000
0000000
00E0000
0000000
0000000
0000000
000FFEC
0000000
0000000
0000000
1FC0000
0000000
0000000
0000000
0000000
0000000
0000000
0000000
0000000
0020000
0040000
0140000
0040000
0060000
0000000
0000000
0020000
0140000
0140000
0000000
0000000
0000000
0000000
0000000
0000000
0000000
000FFEC
0000000
0000000
0000000
0000000
0000000
0000000
0000000
0000000
0060000
0000000
0000000
0000000
0000000
1FE0000
0000000
0000000
1EA0000
0000000
0000000
0000000
0000000
0040000
0000000
0000000
000FFFE
0000000
0000000
0000000
0000000
0000000
0000000
0000000
0000000
0000000
0000000
0000000
0000000
0000000
0000000
0000000
0000000
0000000
0000000
0000000
0000000
0000000
0000000
0000000
0000000
0000000
1FC0000
0000000
0000000
1F60000
0000000
0000000
0000000
0000000
0000000
0000000
0000000
0040000
000FFF0
0000000
0000000
000FFE8
0000000
0000000
0000000
0000000
0000000
0000000
1F40000
1FA0000
0000000
0000000
0000000
0000000
0020000
0000000
0000000
0000000
0020000
0000000
0000000
0000000
0160000
0000000
0020000
0000000
00C0000
0120000
000FFEA
0000000
0000000
000FFF6
000FFDE
0000000
0000000
0000000
0000000
0020000
0200000
0000000
0000000
0000000
0000000
1F20000
1FA0000
0000000
1FC0000
0000000
0000000
0000000
0000000
0000000
0000000
0000000
0000000
0000000
000FFFC
0000000
0000000
000FFFE
0000000
0000000
0000000
0000000
0000000
0000000
0000000
0000000
0000000
0000000
0000000
0000000
0000000
0000000
0000000
0000000
0000000
0000000
0000000
0000000
0000000
0000000
0000000
1FE0000
0000000
0000000
0000000
0000000
0000000
0000000
0000000
0000000
0000000
0000000
0000000
0000000
0000000
0000000
0000000
0000000
0000000
0000000
1DE0000
0000000
1F20000
0000000
0000000
0000000
1FA0000
0000000
0000000
0000000
0000000
0000000
0000000
0000000
0000000
0020000
0000000
0000000
0220000
0000000
0000000
01A0000
0000000
000FFCA
000FFFE
000FFCE
000FFF4
0000000
0000000
0000000
0000000
0000000
0000000
0000000
0000000
0000000
0000000
0000000
0000000
0000000
1EE0000
1F40000
1D00000
0000000
0000000
0000000
0000000
000FFFE
0000000
000FFF4
000FFFC
0000000
0000000
000FFFC
1FE0000
0000000
0000000
1FA0000
0000000
1FE0000
1FE0000
0000000
0000000
0000000
0000000
0000000
1F80000
0000000
1F00000
0000000
0000000
1FE0000
0000000
0000000
0000000
0000000
1F60000
0000000
0000000
0000000
1FE0000
0000000
0000000
0000000
0000000
0000000
0000000
0000000
0000000
0000000
0000000
0000000
0000000
0000000
0000000
1FA0000
1F60000
0000000
1FE0000
1FE0000
1FE0000
0000000
1E20000
0000000
0000000
0000000
0000000
0000000
0000000
1FE0000
0000000
0000000
0000000
0000000
0000000
000FFF8
0000000
0000000
000FFBA
000FFE0
000FFFA
000FFDC
000FFD2
1E80000
0000000
0000000
0000000
0000000
0000000
0000000
0000000
0000000
0000000
0000000
1F80000
0000000
1FC0000
1FE0000
0000000
0000000
0000000
0000000
0000000
0000000
0000000
000FFFC
000FFF0
0000000
0000000
000FFEC
0000000
0000000
0000000
1FC0000
1F40000
0000000
1E80000
0000000
0000000
0000000
0000000
0000000
0000000
0000000
0000000
0000000
0000000
1F60000
0000000
1FA0000
0000000
0000000
0000000
0000000
0000000
0000000
0000000
0000000
0000000
0000000
0000000
0000000
0000000
0000000
0000000
0000000
0000000
0000000
0000000
0000000
0000000
1FC0000
1F80000
0000000
1FC0000
1FE0000
0000000
0000000
0000000
0000000
0000000
0000000
0000000
0000000
0000000
0000000
0000000
0000000
0000000
0000000
0000000
000FFF8
0000000
0000000
000FFB2
000FFE2
000FFFA
000FFEC
1EAFFC8
0000000
0000000
0000000
1F40000
0060000
0000000
0000000
0060000
0000000
0000000
0000000
0000000
0000000
0000000
0000000
1E40000
0000000
0000000
0000000
0000000
0000000
0000000
000FFE2
000FFDC
0000000
0000000
000FFFA
0000000
0000000
0000000
0000000
0000000
0000000
1F40000
0000000
0000000
0000000
0000000
0000000
0000000
0000000
0000000
1F40000
0000000
0000000
0000000
0000000
0000000
0000000
0000000
0000000
0000000
0000000
0000000
0000000
0000000
1FE0000
0000000
0000000
0000000
0000000
0020000
0000000
0000000
0000000
0000000
0000000
0000000
0000000
0000000
0000000
1FC0000
1EC0000
0000000
0000000
0000000
0000000
0000000
0020000
0000000
0000000
0040000
0000000
0000000
0000000
0000000
0000000
0000000
0000000
0000000
0000000
000FFF6
0000000
0000000
1FAFFF8
1F0FFFE
1FC0000
0000000
0000000
0000000
0000000
0000000
0000000
0000000
00C0000
0080000
0000000
0000000
0000000
0000000
0000000
0000000
0000000
0000000
0000000
0000000
0000000
0000000
000FFE8
010FFF4
0000000
0000000
0000000
0000000
0000000
0000000
0000000
0000000
0000000
0000000
0000000
0000000
0000000
0000000
0000000
0000000
0000000
0000000
0000000
0000000
0000000
0000000
0000000
0000000
0000000
0000000
0000000
0000000
0000000
0000000
0000000
0000000
0000000
0000000
0000000
0000000
0000000
0080000
0000000
0000000
0000000
0000000
0000000
0000000
0000000
0000000
0000000
1FC0000
1F00000
0000000
0000000
0000000
0000000
0000000
0000000
0000000
0000000
0000000
0000000
0000000
0000000
0000000
0000000
0000000
0000000
0000000
0000000
0000000
0000000
0000000
1E40000
1D40000
1F20000
0000000
1FE0000
0000000
0000000
0020000
0000000
0200000
01E0000
00C0000
0000000
0000000
0000000
1E60000
1F80000
1FE0000
0000000
0000000
0000000
0000000
0000000
0000000
0000000
0000000
0000000
0000000
0000000
0000000
0000000
0000000
0000000
0000000
0000000
0000000
0040000
0000000
0000000
0000000
0000000
0000000
0000000
0000000
0000000
0000000
0000000
0000000
1F40000
1EA0000
0000000
0000000
000FFFE
0000000
0000000
0000000
0000000
0000000
0000000
0000000
0000000
0000000
0000000
0000000
0000000
0000000
0000000
0000000
0000000
0000000
0000000
0000000
0000000
0000000
0000000
0000000
0000000
0000000
0000000
0000000
0000000
0000000
0000000
0000000
0000000
0000000
0000000
0000000
0000000
0000000
0000000
0000000
0000000
0000000
1FE0000
0000000
1D20000
1DE0000
1E60000
0000000
1FE0000
0000000
0000000
0000000
0000000
0000000
0000000
0000000
0000000
0000000
0000000
1DE0000
1FA0000
0000000
0000000
1EA0000
1FC0000
0000000
0000000
0000000
0000000
0000000
0000000
0000000
0040000
0000000
0000000
0000000
0000000
0000000
0000000
0000000
0000000
0000000
0000000
0000000
0000000
0000000
0000000
0000000
0000000
0000000
0000000
0000000
0000000
0000000
0000000
0000000
000FFF6
0000000
0000000
000FFF6
0000000
0000000
0000000
0000000
0000000
0000000
0000000
0000000
0000000
0000000
00A0000
0000000
0000000
0000000
0000000
0000000
0000000
0000000
0000000
0000000
0000000
0000000
0000000
0000000
0000000
0000000
0000000
0000000
0000000
1FE0000
0000000
0000000
0000000
0000000
0000000
0000000
0000000
1F20000
1C20000
1DA0000
1D40000
1D00000
1D40000
0000000
0000000
1FA0000
0000000
0000000
0000000
02A0000
0000000
0100000
0000000
0000000
0000000
1D80000
1F60000
1DA0000
0000000
1FC0000
1DC0000
0000000
0000000
0000000
0000000
0000000
0000000
0040000
0020000
0140000
0000000
0000000
0000000
0000000
0000000
0000000
0000000
00C0000
0000000
0000000
0000000
0000000
0000000
0000000
0000000
0000000
0000000
0000000
0000000
0000000
0000000
0000000
000FFEA
0000000
0000000
000FFF0
0000000
0000000
0000000
0000000
0000000
0000000
0000000
0000000
0000000
0000000
0060000
0000000
0000000
0000000
0000000
0000000
0000000
1F80000
1F60000
0000000
0000000
0000000
0000000
0000000
0000000
0000000
0000000
0000000
0000000
0000000
0000000
0000000
0000000
0000000
0000000
1FE0000
0000000
1FA0000
1EE0000
1F60000
1DA0000
1C20000
1DC0000
0000000
0000000
0000000
0320000
00E0000
0200000
0440000
0340000
0460000
0000000
0000000
0000000
1FA0000
0000000
1E40000
0000000
0000000
0000000
0000000
0000000
0000000
0000000
0000000
0000000
0000000
0060000
0000000
0000000
0000000
0000000
0000000
0000000
0000000
0000000
0000000
0000000
0000000
0000000
0000000
0000000
0000000
0000000
0000000
0000000
0000000
0000000
0000000
0000000
1FA0000
000FFF4
0000000
1F6FFFE
1F2FFF0
0000000
0000000
0000000
0000000
0000000
0000000
0000000
00A0000
0000000
0000000
0060000
0000000
0000000
0000000
0000000
0000000
000FFFE
1FA0000
0000000
0000000
0000000
0000000
0000000
0000000
0000000
0000000
0000000
0000000
0000000
0000000
0000000
0000000
0000000
0000000
0000000
0000000
0000000
0000000
1EA0000
1EA0000
1F00000
1EC0000
1EA0000
0000000
0000000
0000000
02C0000
0240000
0200000
03E0000
03C0000
03C0000
0000000
0000000
0000000
0000000
0000000
0000000
0000000
0000000
0000000
0040000
0000000
0000000
0000000
0000000
0000000
0020000
0000000
0100000
0000000
0000000
0000000
0040000
0000000
0000000
0000000
0000000
0000000
0000000
0000000
0000000
0000000
0000000
0000000
0000000
0000000
0000000
0000000
0000000
0000000
0000000
000FFF6
0000000
000FFFC
000FFF0
0000000
0000000
0000000
0000000
0000000
0000000
0140000
0120000
0100000
00E0000
0000000
0000000
0000000
0000000
0000000
0000000
0000000
0000000
0000000
0000000
0000000
0000000
00C0000
0000000
0060000
0120000
0000000
0000000
0000000
0000000
0020000
0000000
0000000
0020000
0000000
0000000
0000000
0000000
0000000
1F20000
1EC0000
0000000
1E00000
1FC0000
0000000
1FC0000
0100000
01A0000
0100000
03E0000
0240000
0380000
0000000
0000000
0000000
0000000
0000000
0000000
0000000
0000000
0000000
0000000
0000000
0000000
0000000
0000000
0000000
0080000
0000000
0000000
0000000
0000000
0000000
0000000
0000000
0000000
0000000
0000000
0000000
0000000
0000000
0000000
0000000
0000000
0000000
0000000
0000000
0000000
0000000
1FC0000
0000000
0000000
0000000
0000000
000FFF8
000FFEE
0000000
000FFFE
000FFF8
0000000
0000000
0000000
00E0000
0200000
01A0000
0000000
0000000
0000000
0000000
0000000
0000000
0000000
0000000
1F80000
0000000
000FFFE
0000000
0000000
00A0000
0000000
0000000
0100000
0000000
0000000
0000000
0000000
0000000
0040000
0000000
0040000
0020000
0000000
0000000
0000000
0000000
0000000
1E60000
1DA0000
1D40000
1FE0000
0000000
1FC0000
01EFFFC
0280000
0220000
046FFFE
01A0000
0300000
000FFFC
0000000
0000000
0000000
0000000
0000000
0000000
0000000
0000000
0000000
0000000
0000000
0000000
000FFF0
0000000
0000000
0000000
0000000
0000000
0000000
0000000
0000000
0000000
0000000
0000000
0000000
0000000
0000000
0000000
0000000
0000000
0000000
0000000
0000000
0000000
0000000
0000000
0000000
0000000
1EA0000
0000000
0000000
000FFFE
000FFF0
0000000
000FFFE
000FFF8
0000000
0000000
0000000
00A0000
0000000
0060000
0000000
0000000
0000000
0000000
0000000
0000000
0000000
1FE0000
0000000
0000000
0000000
1F00000
1FE0000
0000000
0000000
0000000
0000000
0000000
0000000
0000000
0000000
0000000
0000000
0020000
0040000
0020000
0020000
0000000
0000000
0000000
0000000
1F80000
1E60000
1EE0000
0000000
0000000
0000000
00EFFF8
01C0000
0000000
03CFFFA
0240000
0360000
000FFF0
002FFF6
0000000
0000000
0000000
0000000
0080000
0020000
0040000
0000000
0000000
0000000
0040000
0000000
0000000
0000000
0000000
0000000
0000000
0000000
0000000
0000000
0000000
0000000
0000000
0000000
0000000
0000000
0000000
0000000
0000000
0000000
0000000
0000000
0000000
0000000
0000000
0000000
0000000
1FA0000
0000000
0000000
0000000
1F80000
0000000
0000000
0000000
0000000
0000000
0000000
00E0000
0000000
0060000
0000000
0000000
0000000
0000000
0000000
0000000
0000000
0000000
1F40000
0000000
1F6FFFE
1F60000
0000000
000FFFC
0000000
0000000
000FFFE
0000000
0000000
0000000
0000000
0000000
0060000
0000000
0040000
0020000
0020000
0000000
0000000
0000000
0000000
1FE0000
0000000
1F60000
0000000
1FC0000
1F00000
000FFFC
0000000
0000000
02CFFFE
0260000
0160000
012FFFE
0260000
0000000
0000000
004FFFE
0000000
0000000
0000000
0000000
0000000
0000000
0000000
0060000
0040000
0000000
0000000
0000000
0100000
0000000
0000000
0000000
0000000
0000000
0000000
0000000
0000000
0000000
0000000
0000000
0000000
0000000
0000000
0000000
0000000
0000000
0000000
1F60000
1E20000
1F80000
1DE0000
0000000
0000000
0000000
0000000
0000000
0000000
0000000
0000000
0000000
0000000
0000000
0000000
0000000
0000000
0000000
0000000
0000000
0000000
0000000
0000000
1FA0000
1FE0000
0000000
000FFFA
1FA0000
0000000
1FCFFFA
0000000
1FE0000
000FFF2
0000000
0000000
000FFFE
1FE0000
0000000
0020000
0000000
0000000
0020000
0020000
0000000
0000000
0000000
0000000
0000000
1F80000
1F80000
0000000
1FA0000
0000000
0000000
0000000
0000000
0100000
01A0000
01A0000
0020000
0120000
0000000
0000000
0000000
0000000
0000000
0000000
0000000
0000000
0000000
0000000
0000000
0000000
0000000
0000000
0000000
0000000
0000000
0000000
00E0000
0000000
0000000
0000000
0000000
0000000
0000000
0000000
0000000
0000000
1FE0000
0000000
0000000
0000000
0000000
0000000
1F60000
0000000
1F40000
0000000
0000000
0000000
0000000
1FE0000
0000000
0000000
0000000
0000000
0000000
0000000
01C0000
0000000
0000000
0000000
0000000
0000000
0000000
0000000
0000000
0000000
0000000
0000000
0000000
0000000
0000000
0000000
0000000
1FE0000
0000000
0000000
0000000
0000000
1FA0000
1FC0000
0000000
0000000
0000000
0000000
0000000
0000000
0000000
0000000
0000000
0000000
0000000
1F20000
1F20000
1FC0000
1EC0000
1F20000
0000000
0000000
0000000
0000000
0000000
0000000
0000000
0000000
0000000
0000000
0000000
0000000
0000000
0000000
0000000
0000000
0000000
0000000
0000000
0000000
0000000
0000000
0000000
0000000
0000000
0000000
0120000
0000000
0000000
0000000
0000000
0000000
0000000
0000000
0000000
0000000
0000000
0000000
0000000
1FE0000
0000000
0000000
0000000
0000000
0000000
0000000
0000000
0000000
0000000
0000000
0000000
1FE0000
0000000
0000000
1FE0000
0000000
0000000
0000000
0140000
0040000
0000000
0000000
0000000
1FE0000
1FC0000
0000000
0000000
0000000
0000000
0000000
0000000
0000000
0000000
0000000
0000000
0000000
1FC0000
0000000
0000000
1FA0000
0000000
000FFF4
0000000
0000000
0000000
0000000
0000000
0000000
0000000
00A0000
1EA0000
0000000
1FC0000
1DE0000
1FC0000
1EC0000
0000000
0000000
0000000
0000000
0000000
0000000
0000000
0000000
0000000
0000000
0000000
0000000
0000000
0000000
0000000
0000000
0080000
0000000
0000000
0000000
0000000
0000000
0000000
0000000
0000000
0000000
0000000
0000000
0000000
0000000
0000000
0000000
0000000
0000000
0000000
0000000
0000000
0000000
0000000
0000000
0000000
0000000
0000000
0000000
0000000
0000000
0000000
0000000
0000000
0000000
0000000
0000000
0000000
0000000
0000000
0000000
0000000
0000000
00E0000
0000000
0000000
0000000
0000000
0000000
0000000
0000000
0000000
1FE0000
1F80000
1FE0000
1FE0000
0000000
0000000
1FE0000
0000000
1FE0000
1E00000
0000000
1FC0000
1E20000
1FE0000
000FFFA
1FC0000
0000000
000FFFC
0000000
0000000
000FFFE
0000000
0000000
0000000
1FE0000
0000000
1F2FFFE
1F00000
1E60000
0000000
0000000
0000000
0000000
0000000
0000000
0000000
0060000
0000000
0000000
0000000
0000000
0000000
0000000
0000000
1FC0000
0000000
0000000
1FE0000
0000000
0000000
0000000
0000000
0000000
0000000
0000000
0000000
0000000
0000000
0000000
0000000
0000000
0000000
0000000
0000000
0000000
0000000
0000000
0000000
0000000
0000000
0000000
0000000
0000000
0000000
0000000
0000000
0000000
0000000
0000000
0000000
0000000
0000000
0000000
0000000
0000000
0060000
0000000
0000000
0000000
0000000
0000000
0000000
1FE0000
0000000
0000000
0000000
0000000
0000000
0000000
0000000
0000000
0000000
0000000
0000000
0000000
1EE0000
0000000
0000000
1F60000
0000000
0000000
0000000
0000000
0000000
0000000
0000000
0000000
0000000
0000000
1F80000
1F20000
0000000
1D40000
1E40000
1EE0000
0000000
0000000
0000000
0000000
0000000
0000000
0000000
0000000
0020000
0000000
0000000
0000000
0000000
0000000
0000000
0000000
0000000
0000000
0000000
0000000
0000000
0000000
0000000
0000000
0000000
0000000
0000000
0000000
0000000
0000000
0000000
0000000
0000000
0000000
0000000
0000000
0000000
0000000
0000000
0000000
0000000
0000000
0000000
0000000
0000000
0000000
0000000
0000000
0000000
0000000
0000000
0000000
0000000
0000000
0000000
0000000
0000000
0000000
0000000
0000000
0000000
0000000
0000000
0000000
1FE0000
0000000
0000000
0000000
1F80000
0000000
0000000
0000000
0000000
0000000
0000000
0000000
0000000
0000000
0000000
0000000
0000000
0000000
0000000
0000000
0000000
0000000
0000000
0000000
0000000
0000000
0000000
1FE0000
0000000
1D60000
1FE0000
1F80000
0000000
0000000
0000000
0000000
0000000
0000000
0000000
0080000
0080000
0000000
0020000
0060000
0000000
0000000
0000000
0000000
0000000
0000000
0000000
0000000
0000000
0000000
0000000
0000000
0000000
0000000
0000000
0000000
0000000
0000000
0000000
0000000
0000000
0000000
0000000
0000000
0000000
0000000
0000000
0000000
0000000
0000000
0000000
0000000
0000000
0000000
0000000
0000000
0000000
0000000
0000000
0000000
0000000
0000000
0000000
0000000
0020000
0000000
0000000
0000000
0000000
0000000
0000000
0000000
1E60000
0000000
0000000
0000000
0000000
0000000
0000000
0000000
0000000
0000000
0000000
0000000
0000000
00A0000
0000000
0000000
0000000
0000000
0000000
0000000
0000000
0000000
0000000
0000000
0000000
0000000
1EE0000
1FC0000
1F60000
1E60000
1FE0000
0000000
0000000
0000000
0000000
0000000
0000000
0000000
0000000
0000000
0060000
0000000
0000000
0000000
0000000
0000000
0000000
0000000
0000000
0020000
0000000
0000000
0000000
0000000
0000000
0000000
0000000
0000000
0000000
0000000
0000000
0000000
0000000
0000000
0000000
0000000
0000000
0000000
0000000
0000000
0000000
0000000
0000000
0000000
0000000
0000000
0000000
0000000
0000000
0000000
0000000
0000000
0000000
0000000
0000000
0000000
0000000
1FC0000
0000000
0000000
0000000
00E0000
0000000
0000000
0000000
0000000
0000000
0000000
0000000
1F40000
0000000
0000000
0000000
0000000
0000000
0000000
0000000
0000000
0000000
00C0000
0060000
0000000
0000000
0000000
0000000
0000000
0000000
0000000
0000000
0000000
0000000
0000000
0000000
0000000
0000000
1EE0000
1FC0000
1E80000
1E80000
0000000
0000000
0000000
0000000
1F00000
1FE0000
0000000
0000000
0000000
0000000
0000000
1FE0000
0000000
0000000
0000000
0000000
0000000
0000000
0000000
0000000
0000000
0000000
0000000
0000000
0000000
0000000
0000000
0000000
0000000
0000000
0000000
0000000
0000000
1FE0000
0000000
0000000
0000000
0000000
0000000
0000000
0000000
0000000
0000000
0000000
0000000
0000000
0000000
0000000
1F40000
0000000
0000000
1DA0000
0000000
0000000
1F00000
0000000
0000000
0000000
0000000
0000000
0000000
0000000
0000000
0000000
0000000
0000000
0060000
0120000
0000000
0040000
0000000
0000000
0040000
0000000
0000000
0060000
0000000
0000000
0000000
0000000
0000000
0000000
0000000
0000000
0000000
0000000
0000000
0000000
0000000
0000000
0000000
0000000
0000000
0000000
0000000
0000000
0000000
0000002
0000000
0000000
0000000
0000000
0000000
0000000
0080000
0000000
0000000
0020000
0000000
0000000
0160000
00A0000
0000000
0060000
01A0000
0000000
01C0000
00E0000
0000000
0040000
0000000
0000000
0000000
0000000
0000000
0000000
0000000
1EE0000
0000000
0000000
1F40000
0000000
0000000
1FC0000
0000000
0000000
1F80000
0000000
0000000
1FE0000
0000000
0000000
0000000
0000000
00E0000
0000000
0040000
0100000
0000000
0040000
01E0000
0000000
0000000
0000000
0000000
0000000
0080000
0000000
0000000
0000000
0000000
0000000
0020000
0000000
0000000
00C0000
0040000
0080000
0060000
0000000
00C0000
0000000
0000000
0000000
0000000
0000000
0000000
00E0000
0000000
0000000
0000000
0020000
0000000
0000000
0000000
0000000
0000000
0000000
0000000
0000000
0000000
0000000
0000000
0000000
0000000
1FA0000
0000000
0000000
1FC0000
0000000
0000000
0000000
0000000
0000000
0000000
0000000
0000000
1FA0000
1FE0000
0000000
0000000
0000000
0000000
0000000
0000000
0040000
0000000
0000000
0000000
0000000
0000000
0000000
0000000
1F60000
0000000
0000000
1F80000
0000000
0000000
1FE0000
0000000
0000000
1F40000
1FE0000
0000000
1F60000
0000000
0000000
1FE0000
0000000
0000000
0000000
0020000
0160000
0000000
0000000
0040000
0000000
0000000
0040000
00C0000
0020000
0020000
00C0000
0000000
0040000
00A0000
0000000
0000000
0040000
0000000
01C0000
0100000
0000000
0040000
0000000
0000000
0000000
0000000
0000000
0000000
0000000
0000000
0000000
0000000
0000000
0000000
0000000
0000000
0000000
0000000
0000000
0000000
0000000
0000000
0000000
0000000
1FE0000
1FE0000
1E20000
1E00000
1DA0000
1E80000
1EC0000
1E40000
0000000
1D00000
1E00000
0000000
1F80000
1C40000
1DE0000
1F60000
1FA0000
1F60000
0000000
0000000
0000000
0000000
0000000
0000000
0000000
0000000
0000000
0000000
0000000
0000000
0000000
0000000
0000000
0000000
0000000
0000000
0000000
0000000
1F60000
0000000
0000000
1F60000
0000000
0000000
1FE0000
0000000
0000000
0000000
0000000
0000000
0000000
0000000
0000000
0000000
0000000
0000000
0000000
0000000
0000000
0080000
0000000
0000000
0080000
0000000
0000000
0080000
0000000
0000000
0000000
0000000
0020000
0000000
0000000
0000000
0000000
0000000
0000000
0000000
1FE0000
0000000
0000000
0000000
0000000
0000000
0000000
0000000
0000000
0000000
0000000
1F40000
1F20000
0000000
1EC0000
1F20000
0000000
0000000
0000000
0000000
1F60000
1F60000
1E60000
0000000
1EE0000
1DC0000
1E80000
1C80000
1D40000
0000000
1CE0000
1CC0000
1DE0000
1CA0000
1CA0000
1FE0000
0000000
1E40000
1F00000
0000000
0000000
0000000
0000000
0000000
0000000
0000000
0000000
0000000
0000000
0000000
0000000
0000000
0000000
0000000
0000000
0000000
0000000
1FE0000
0000000
1DA0000
0000000
0000000
1FE0000
0000000
0000000
0000000
0000000
0000000
0000000
0000000
0000000
0000000
0000000
0000000
0000000
0000000
0000000
0000000
0000000
0000000
0000000
0000000
0000000
0000000
0000000
0000000
0000000
0000000
0000000
0000000
0000000
0000000
0000000
0000000
0000000
0000000
1FC0000
1FC0000
0000000
1FE0000
0000000
0000000
1F60000
0000000
0000000
1EA0000
0000000
0000000
0000000
1F00000
0000000
0000000
0000000
0000002
0000000
0000000
0000000
0000000
0000000
0000000
1F00000
0000000
1F20000
1E40000
1EA0000
0000000
1D40000
1DE0000
1EE0000
1EC0000
1E40000
0000000
0000000
0000000
0000000
0000000
0000000
0000000
0000000
0000000
0000000
0000000
0000000
0000000
0000000
0000000
0000000
0000000
0000000
0000000
0000000
0000000
0000000
1E60000
0000000
0000000
0000000
0000000
0000000
1F60000
0000000
0000000
0000000
0000000
0000000
0000000
0000000
0000000
1F80000
0000000
0000000
0000000
0000000
0000000
0000000
0000000
0000000
0000000
0000000
0000000
0060000
0000000
0020000
0060000
0000000
0000000
0000000
0000000
0000000
0000000
0000000
0000000
0000000
0000000
0000000
0000000
1FE0000
0000000
0000000
1F40000
1F60000
0000000
0000000
0000000
0000000
0000000
0000000
0000000
0000000
0000000
0000000
0000000
0000000
0000000
0000000
0000000
0000000
0000000
0000000
0000000
0000000
0000000
0000000
0000000
0000000
0000000
0000000
0000000
0000000
0000000
0080000
0060000
0000000
0000000
0180000
0000000
0000000
00A0000
0060000
0040000
0000000
0000000
0000000
0000000
0000000
0000000
0000000
0000000
0000000
0000000
0000000
0000000
0000000
0000000
0000000
0000000
0000000
0000000
0000000
0040000
0100000
0000000
0000000
0000000
1FA0000
0000000
0000000
0000000
0000000
0000000
00C0000
0000000
0000000
0000000
0000000
0000000
00A0000
0000000
0000000
0040000
0000000
0000000
0000000
0000000
0000000
0000000
0000000
0000000
0000000
0000000
0000000
1FC0000
1F80000
0000000
0000000
0000000
1FC0000
0000000
0000000
0000000
0000000
0000000
0000000
0000000
0000000
00A0000
0000000
0000000
0000000
0100000
0000000
0000000
0020000
00C0000
0080000
0040000
0000000
00A0000
00E0000
0120000
0000000
02A0000
00E0000
0160000
0280000
01C0000
0380000
02C0000
03A0000
0240000
0220000
0020000
02A0000
0100000
0160000
00C0000
0000000
0000000
0000000
0000000
0000000
0000000
0000000
0000000
0000000
1F80000
0000000
0000000
0000000
0000000
0000000
0000000
0000000
0000000
0000000
0000000
0000000
0000000
0000000
0000000
0000000
0000000
0000000
0000000
0000000
0000000
0000000
0000000
0000000
00E0000
0000000
0000000
0000000
0000000
0000000
0000000
0000000
0000000
0000000
0000000
0000000
0000000
0000000
0000000
0000000
0000000
0000000
0000000
1FC0000
0000000
0000000
0000000
0000000
0000000
0000000
0000000
00C0000
0060000
0020000
0100000
0040000
00A0000
0000000
0320000
0040000
0200000
02E0000
0120000
0220000
0240000
0300000
0520000
0540000
0240000
0440000
0300000
0200000
0420000
0400000
01C0000
0300004
02A0000
02C0000
01E0000
03A0000
0280000
0000000
0040000
0040000
0000000
02A0000
0020000
0000000
0000000
0000000
0000000
0000000
0000000
1F60000
0000000
0000000
1F60000
0000000
0000000
0000000
0000000
0000000
1F60000
0000000
0000000
1FC0000
0000000
0000000
1F20000
0000000
0000000
1FA0000
0000000
0000000
0000000
0000000
0000000
0000000
0000000
0000000
0000000
0000000
0000000
0000000
0000000
0000000
0000000
0000000
0000000
0000002
0000000
0000002
1FA0000
0000000
0000000
1FC0000
0000000
1F80000
0000000
0000000
1FA0000
0000000
0000000
0000000
0000000
0000000
0000000
0100000
00A0000
0000000
0060000
0260000
0000000
02A0000
0000000
0000000
0240000
0160000
0000000
01A0000
01C0000
0020000
0000000
0260000
00A0000
01A0000
01C0000
0120000
01C0000
0180000
0000000
00A000C
0000000
0000000
0000000
0000000
0000000
0000000
0000000
0000000
0000000
0000000
0000000
0000000
0000000
0000000
0000000
0000000
0000000
0000000
0000000
0000000
1FE0000
0000000
0000000
0000000
0000000
00A0000
0000000
0000000
0000000
0000000
0000000
0000000
1F40000
0000000
0000000
0000000
0000000
0000000
0000000
0000000
0000000
0000000
0000000
0000000
0000000
0000000
0000000
0000000
0000000
0000000
0000000
0000000
0000000
0000000
0000000
0000000
0000000
0000000
0000000
0000000
0000000
0000000
0000000
0000000
0000000
0000000
0000000
0000000
0000000
0000000
0000000
0060000
0120000
0020000
0040000
0000000
0000000
0000000
0140000
0000000
0000000
0000000
0000000
0000000
0000000
0000000
0000000
0000000
0000000
0000000
0000000
0000000
0000000
0000000
0000000
0000000
1F60006
1F80000
1D60000
1F40000
0000000
1FA0000
1FC0000
0000000
0000000
0000000
0000000
0000000
0000000
0000000
0000000
0000000
0000000
0000000
0000000
0000000
0000000
0000000
0000000
0000000
0000000
0040000
0000000
0000000
0000000
0000000
1F00000
0000000
0000000
1EA0000
0000000
0000000
0000000
0000000
0000000
0000000
0000000
0000000
0000000
0000000
0000000
0000000
0000000
0000000
0000000
0000000
0000000
0000000
0000000
0000000
0000000
0000000
0000000
0000000
0000000
0000000
0000000
0000000
0000000
0040000
0000000
0000000
0000000
0000000
0000000
0000000
0000000
0000000
0000000
0000000
0000000
0000000
0000000
0000000
0000000
0000000
0000000
0000000
0000000
1D40000
0000000
1FE0000
1EA0000
1F00000
1F60000
1DE0000
1DA0000
1EA0000
1D40008
1D20000
1F40000
1FA0000
1E60000
0000000
1AC0000
19C0000
1CC0000
1C60000
1FC0000
1FA0000
0000000
0000000
1FC0000
1FE0000
1FA0000
0000000
0000000
0000000
0000000
0000000
0000000
0000000
0000000
0000000
0000000
0000000
0000000
0040000
0000000
0000000
0000000
0000000
0000000
1FE0000
0000000
0000000
1F40000
0000000
0000000
0000000
0000000
0000000
0000000
0000000
0000000
0000000
0000000
0000000
0000000
0000000
0000000
0000000
0000000
0000000
0000000
0000000
0000000
0000000
0000000
0000000
0000000
0000000
0000000
0000000
0020000
0040000
0000000
0000000
0000000
0000000
0000000
0000000
0000000
0000000
0000000
0000000
0000000
00A0000
0000000
0000000
0000000
0000000
1F60000
0000000
0000000
1D60000
1D20000
1FC0000
1C80000
1D00000
1EA0000
0000000
1E60000
1D60000
0000010
1B20006
1F20000
1FC0002
1D40000
1E00000
1E40000
1CE0000
1EC0000
1DC0000
1F80000
1F40000
1EC0000
1F60000
0000000
0000000
0000000
0000000
0000000
0000000
0000000
0000000
0000000
0000000
0000000
0000000
0000000
0000000
0000000
0000000
1F80000
1F60000
1FC0000
1FC0000
1F20000
1E20000
0000000
0000000
0000000
0000000
0000000
0000000
0000000
0000000
0000000
0000000
1FE0000
1F80000
0000000
0000000
1FE0000
0000000
0000000
0000000
0000000
0000000
0000000
0060000
0000000
0000000
0000000
0000000
0000000
0000000
0000000
0060000
0000000
0000000
0000000
0000000
0000000
0000000
0020000
0000000
0000000
0000000
0080000
0000000
0000000
0000000
0000000
0000000
0000000
0000000
0000000
0000000
0000000
1DE0000
1F40000
0000000
0000000
0000000
0000000
0000000
1FC0000
0000000
0000000
1F20000
0000000
0000000
1F60000
0000000
0000000
0000000
0000000
0000000
0000000
0000000
1FC0000
0000000
0000000
0000000
0000000
0000000
0000000
0000000
0000000
0000000
0000000
0000000
0000000
0000000
0000000
0000000
0000000
0000000
0000000
0000000
0000000
0000000
0000000
1FE0000
0000000
0000000
0000000
0000000
0000000
0000000
0000000
1F20000
0000000
0000002
0000000
1FE0000
1FC0000
1FC0000
0000000
0000000
0000000
0000000
0000000
0000000
0000000
0000000
0000000
0000000
0000000
0000000
0000000
0000000
0020000
0000000
0000000
0120000
0000000
0000000
0000000
0000000
0000000
0000000
0000000
0000000
0120000
0000000
0020000
0140000
0000000
0000000
01C0000
0000000
0000000
0000000
0000000
0000000
0000000
0000000
0000000
0000000
0000000
0000000
0000000
0000000
0000000
0000000
0000000
0000000
0000000
0000000
0000000
0000000
0000000
0000000
0000000
0000000
0000000
0000000
0000000
1FC0000
0000000
0000000
0000000
0000000
0000000
0000000
0000000
0000000
0000000
0000000
0000000
0000000
0000000
0000000
0000000
0000000
0000000
0000000
0000000
0000000
0000000
0040000
0000000
0000000
0020000
0000000
1FC0000
0000000
0000000
0000006
0000000
1FE0000
1FC0002
1FA0000
1FE0000
0000000
0000000
0000000
0000000
0000000
0000000
0000000
0000000
0000000
0000000
0000000
0100000
00A0000
01C0000
0120000
01A0000
00E0000
0000000
0000000
00A0000
0000000
0000000
0000000
0000000
0000000
0000000
0000000
0000000
0000000
0000000
0000000
00A0000
0000000
0000000
0000000
0000000
0000000
0000000
0000000
0000000
0000000
0000000
0000000
0000000
0000000
0000000
0000000
0000000
0000000
0000000
0000000
0000000
0000000
0000000
0000000
0000000
0060000
0000000
0000000
0000000
0000000
0000000
0000000
0000000
0000000
0000000
0000000
0020000
0000000
0000000
0000000
0020000
0000000
00E0000
0000000
0000000
0040000
0000000
0000000
0000000
0000000
0000000
0040000
0000000
0040000
00A0000
0000000
0000000
1E80000
0000000
0000006
1F80000
1FC0000
1EE0004
1FA0000
1FA0000
0000000
0000000
0000000
0000000
0000000
0000000
0000000
0000000
0000000
0060000
0000000
0000002
0000000
0080000
0080004
0000000
0000000
0000000
0000000
0000000
0000000
0000000
0000000
0000000
0000000
0000000
0000000
0000000
0000000
0000000
0000000
0000000
0000000
0000000
0000000
0000000
0000000
0000000
0000000
0000000
0000000
0000000
0000000
0000000
0000000
0000000
0000000
0000000
00C0000
0140000
0000000
0040000
0140000
0000000
0000000
0000000
0000000
0000000
0000000
0040000
0000000
0000000
0000000
0000000
0080000
0000000
0000000
00C0000
0020000
0000000
0100000
0040000
0000000
0000000
0000000
0000000
0000000
0000000
0000000
0000000
0000000
0000000
0000000
0000000
0000000
0100000
0000000
0000000
1FA0000
0000000
0000000
1FE0000
0000000
0000000
0000000
0000000
0000000
0000000
0000000
0000000
0000000
0000000
0000000
0000000
0000000
0000000
0000000
0000002
0000000
0000000
0000000
0000000
0000000
0000000
0000000
0000000
0000000
0000000
0000000
0000000
0000000
0000000
0000000
0000000
0000000
0000000
0000000
0000000
0000000
0000000
0000000
0000000
0000000
0000000
1FE0000
1EE0000
1EC0000
1F60000
0000000
0000000
1E80000
0000000
0000000
0000000
0100000
0100000
0000000
0000000
0000000
0000000
0000000
0080000
00E0000
0000000
0000000
0000000
0000000
0000000
0000000
0000000
0220000
0080000
0000000
0100000
0060000
0000000
0080000
0000000
0000000
0000000
0000000
0000000
0000000
0000000
0000000
0000000
0000000
0000000
0000000
0000000
0180000
00A0000
0020000
0000000
0000000
0000000
0000000
0000000
0000000
0000000
0000000
0000000
0000000
0000000
0000000
0000000
1F20000
0000000
0000000
0000000
0000000
0000000
0000000
0000000
0000000
0000000
0000000
0000000
0000000
0000000
0000000
1FE0000
1EE0000
0000000
0000000
0000000
0000000
0000000
0000000
0000000
0000000
0000000
0000000
0000000
0000000
0000000
0000000
0000000
0000000
1F60000
1FE0000
0000000
0000000
0000000
0000000
0000000
1FC0000
0000000
0000000
1FA0000
0000000
0000000
0000000
0060000
00A0000
0000000
0160000
0060000
0000000
0000000
0000000
0000000
0000000
0000000
0000000
0000000
0000000
0000000
0000000
0000000
0000000
0000000
0000000
0000000
0000000
0000000
0000000
0000000
0000000
0000000
0000000
0000000
0000000
0000000
0000000
0000000
0000000
0020000
0000000
0020000
0000000
0000000
0000000
0000000
0000000
0000000
0000000
0000000
0000000
0000000
0000000
0000000
1F00000
0000000
0000000
0000000
0000000
0000000
0000000
0000000
0000000
0000000
0000000
0000000
0000000
0000002
0000000
0000000
0000000
0000000
0000000
0000000
0000000
0000000
0000000
0000000
0000000
0000000
0000000
0000000
0000000
0000000
0000000
0000000
0000000
0000000
0000000
0020000
0000000
1DA0000
0000000
1F60000
1C80000
0000000
0000000
1FC0000
0000000
0000000
0000000
0060000
0000000
0000000
0000000
0000000
0000000
0000000
0000000
0000000
0000000
0000000
0000000
0000000
0000000
0000000
0000000
0000000
0000000
0000000
0000000
0000000
0000000
0000000
0000000
0000000
0000000
0000000
0000000
0000000
0000000
0000000
0000000
0000000
0000000
0000000
0000000
00C0000
0000000
0000000
0020000
0000000
0000000
0000000
0000000
0000000
0000000
0000000
0000000
0000000
1FE0000
0000000
0000000
0000000
0000000
0000000
0000000
0000000
0000000
0000000
0000000
0000000
0000000
0000000
0000000
0000000
1F40000
0000000
0000000
0000000
0040000
0040000
0000000
0080000
0140000
0000000
0000000
0060000
0000000
0000000
0000000
0000000
0020000
0000000
1E00000
0000000
0000000
1E80000
0000000
0000000
0000000
0000000
0000000
0000000
0000000
0060000
0000000
0080000
0000000
0000000
0000000
0000000
0000000
0000000
0000000
0000000
0040000
0000000
0000000
0000000
0000000
0000000
0000000
0000000
0000000
0000000
0000000
0000000
0000000
0000000
0000000
0000000
0000000
0000000
0000000
0000000
0000000
0000000
0000000
0000000
0000000
0000000
0000000
0060000
0000000
0000000
0000000
0000000
0000000
0000000
0000000
0000000
0000000
0000000
0000000
0000000
0000000
0000000
1EC0000
0000000
1E20000
0000000
0000000
0000000
0000000
0000000
0000000
0000000
0000000
0000000
0000000
1EC0000
0000000
0000000
1F80000
0000000
0060000
0060000
0000000
0040000
0000000
0000000
0000000
0000000
0000000
0000000
0000000
0000000
0020000
0000000
0000000
0020000
0000000
0000000
0000000
0000000
0000000
0000000
0000000
0000000
0000000
0000000
0000000
0000000
00C0000
0000000
0000000
0000000
0000000
0000000
0000000
0000000
0040000
0000000
00A0000
0000000
0000000
0000000
0000000
0000000
0000000
0000000
0000000
0000000
0000000
0000000
0000000
1FE0000
0000000
0000000
0000000
0000000
0000000
0000000
0000000
0000000
0000000
0000000
0000000
00A0000
0000000
0000000
0000000
0000000
0000000
0000000
0000000
0000000
0020000
0000000
0020000
0000000
0000000
0000000
1FA0000
1DE0000
0000000
0000000
0000000
0000000
0000000
0000000
1F60000
0000000
1F00000
0000000
0000000
0000000
0000000
0000000
0000000
0000000
0000000
0000000
0000000
0000000
0000000
0000000
0000000
0000000
0000000
0000000
0000000
0000000
0000000
0000000
0000000
0000000
00A0000
0000000
0060000
0100000
0000000
0000000
0000000
0000000
0000000
0000000
0000000
0000000
0000000
0000000
0000000
0000000
0000000
0000000
0000000
0000000
00A0000
0000000
0000000
0000000
0000000
0000000
0000000
0000000
0000000
0000000
0000000
0000000
1FE0000
0000000
0000000
1FA0000
1FE0000
1FA0000
1FE0000
0000000
0000000
0000000
0000000
0000000
0000000
0000000
0000000
00C0000
0000000
0000000
00E0000
0000000
0000000
0000000
0000000
00C0000
0100000
0000000
0160000
0000000
0000000
0000000
0000000
1EC0000
0000000
0000000
0000000
1F80000
0000000
0000000
1F40000
1DA0000
1E20000
1F20000
1E40000
1FE0000
0000000
0000000
0000000
0000000
0000000
0000000
0000000
0000000
0000000
0000000
0000000
0000000
0000000
0000000
0000000
0000000
0000000
0000000
0000000
0000000
0020000
0000000
0000000
0000000
0000000
0000000
0000000
0040000
0000000
0000000
0000000
0000000
01A0000
0000000
0000000
0000000
0000000
0000000
0000000
0000000
0000000
0000000
0000000
0000000
0000000
0000000
1FC0000
1F60000
1F80000
0000000
0000000
0000000
1FA0000
0000000
0000000
1F80000
0000000
0000000
1FE0000
0000000
0000000
0000000
0000000
0000000
0000000
0000000
0000000
00C0000
0000000
00E0000
0000000
0000000
0000000
0000000
0000000
00A0000
0000000
0000000
0000000
0000000
0000000
0000000
0000000
1F60000
0000000
0000000
0000000
0000000
0000000
0000000
0000000
1CA0000
1EC0000
1FE0000
1E00000
0000000
0000000
0000000
0000000
0000000
0000000
0000000
0000000
0000000
0000000
0000000
0000000
0000000
0000000
0000000
0000000
0000000
0000000
0000000
0000000
0000000
0000000
0000000
0020000
0000000
0000000
0000000
0000000
0140000
0000000
0000000
0000000
0000000
0000000
0000000
0000000
0000000
0000000
0000000
0000000
0000000
0000000
0000000
0000000
0000000
0000000
0000000
0000000
0000000
0000000
0000000
0000000
0000000
1F20000
0000000
0000000
0000000
0000000
0000000
0000000
0000000
0000000
0000000
0000000
0000000
0000000
0000000
0000000
0000000
0000000
0000000
0000000
0000000
0000000
0000000
0000000
0000000
0000000
0000000
0000000
0000000
0000000
0000000
0000000
0000000
0000000
0000000
0000000
0000000
0000000
0000000
0020000
0000000
0000000
0000000
0000000
0000000
0000000
0000000
0000000
0000000
0000000
0000000
0000000
0000000
0000000
0000000
0000000
0000000
0000000
0000000
0000000
0020000
0000000
0080000
0000000
0000000
0000000
0000000
0000000
0000000
0000000
0000000
0000000
0060000
0000000
0000000
0000000
0000000
0000000
0000000
0000000
0000000
0000000
0000000
0000000
0000000
0000000
0000000
0000000
0000000
0000000
0000000
0000000
0000000
0000000
0000000
0000000
0000000
0000000
0000000
0000000
0000000
0000000
0000000
0000000
0000000
0000000
0000000
0020000
0000000
0000000
0020000
0020000
0000000
0000000
0000000
0000000
0000000
0000000
0000000
0000000
0000000
0000000
0000000
0000000
0000000
0000000
0000000
0000000
0000000
0000000
0000000
0000000
0000000
0000000
0000000
0000000
0000000
0000000
0000000
0000000
0000000
0000000
0000000
0000000
0000000
0000000
0000000
0000000
0000000
0000000
01E0000
0000000
0000000
0000000
0080000
0020000
00A0000
0020000
0000000
0000000
00E0000
0000000
0000000
0000000
0000000
0000000
0080000
0080000
0120000
0000000
0000000
0100000
0000000
0000000
0000000
0000000
0000000
0000000
0000000
0000000
0000000
0000000
0000000
0000000
0000000
0000000
0000000
0000000
0000000
0000000
0000000
0000000
0000000
0000000
0000000
0000000
0000000
0060000
0000000
0000000
0020000
0000000
0000000
0000000
0000000
0000000
0000000
0000000
0000000
0000000
0000000
0000000
0000000
0000000
0000000
0000000
0000000
0000000
0000000
00A0000
0020000
0000000
0040000
0000000
0000000
0000000
0000000
0000000
0000000
0040000
0000000
0000000
0000000
0000000
0000000
0000000
0000000
0000000
1FA0000
1E60000
0000000
0000000
0000000
0000000
0000000
0000000
0000000
0000000
0000000
0140000
0020000
0040000
0180000
0000000
0000000
0060000
0000000
0000000
0000000
0000000
0000000
01E0000
0000000
0000000
0000000
0000000
0000000
0000000
0000000
1EE0000
0000000
0000000
0000000
0000000
0000000
0000000
0000000
0000000
1F00000
0000000
0000000
0000000
0000000
0000000
0000000
0000000
0000000
0000000
0000000
0000000
0000000
0000000
0000000
0000000
0000000
0000000
0000000
0000000
0000000
0000000
0000000
0000000
0000000
0000000
1FE0000
1FE0000
0000000
0000000
0000000
0000000
0000000
0000000
0000000
0000000
0000000
0040000
0080000
0000000
0080000
0000000
0000000
0000000
0000000
0000000
0000000
0000000
0000000
0000000
0000000
0000000
0000000
0000000
0000000
0000000
1F80000
0000000
0000000
0000000
0000000
1FE0000
0000000
0000000
0000000
0000000
0000000
0000000
0000000
0020000
0000000
0000000
0000000
0000000
0000000
0000000
0000000
0000000
0000000
0000000
0000000
0000000
0000000
0000000
1FC0000
0000000
0000000
0000000
0000000
0000000
0000000
0000000
0000000
1E60000
0000000
1F00000
1F00000
1F80000
1F40000
1E00000
1F80000
0000000
0000000
0000000
0000000
0000000
0000000
0000000
0000000
0000000
0000000
0000000
0000000
0000000
0000000
0000000
0000000
0000000
0000000
0000000
0000000
0000000
0000000
0000000
0000000
1F80000
1FE0000
0000000
1FC0000
1F80000
0000000
0000000
0000000
0000000
0000000
0000000
0000000
0000000
0000000
0000000
0000000
0000000
0000000
0020000
0000000
0000000
0000000
0000000
0000000
0000000
0000000
0000000
1FC0000
0000000
0000000
0000000
0000000
0000000
0000000
0000000
0000000
0000000
0000000
0000000
0000000
0000000
0000000
0000000
0000000
0000000
0000000
0000000
0000000
0000000
0000000
0000000
0000000
0000000
0000000
0060000
0000000
0100000
0000000
0000000
00C0000
0000000
0000000
0000000
0000000
0000000
0000000
1F00000
0000000
1FC0000
0000000
0000000
0000000
0000000
0000000
0000000
0000000
0000000
0000000
0000000
0000000
0000000
0000000
0000000
0000000
0000000
0000000
0000000
0000000
0000000
0000000
0000000
0000000
0000000
0000000
1FE0000
0000000
1FE0000
1F20000
0000000
0000000
1F60000
0000000
0000000
1F80000
0000000
0000000
0000000
0000000
0000000
0000000
0000000
0000000
0000000
0000000
0000000
0000000
0000000
0000000
0000000
0000000
0000000
0000000
0000000
0000000
0000000
0000000
0000000
0000000
0000000
0000000
0000000
0000000
0000000
00A0000
0000000
01C0000
0160000
0000000
00E0000
0000000
0000000
0000000
0000000
0000000
0000000
0000000
0000000
0000000
0000000
0000000
0000000
0000000
0000000
0000000
0000000
0020000
1F20000
0000000
0000000
0000000
0000000
0000000
0000000
0000000
0000000
0000000
0000000
0000000
0000000
0000000
00A0000
0000000
0000000
0000000
0000000
0000000
0000000
0000000
0000000
0000000
0000000
0000000
0000000
0000000
0000000
0000000
00C0000
0000000
0000000
1FE0000
1FC0000
0000000
1F60000
1FC0000
0000000
1F60000
1FA0000
0000000
0000000
0000000
0000000
0000000
0000000
0000000
0000000
0000000
0000000
0000000
0000000
0000000
0000000
0000000
0000000
0000000
0000000
0000000
0000000
0000000
0000000
0000000
0000000
0000000
0000000
0000000
0000000
0000000
0000000
0000000
0100000
0000000
0000000
0000000
0000000
0140000
02A0000
0000000
00A0000
0060000
0000000
0000000
0000000
0000000
0000000
0000000
0000000
0000000
0000000
0000000
0000000
1FC0000
0000000
0000000
1FE0000
0000000
0000000
0000000
0000000
0000000
0000000
0000000
0000000
0000000
0000000
0020000
0040000
0000000
0080000
0000000
0000000
0000000
0000000
0000000
0000000
0000000
0000000
0000000
0000000
0000000
0000000
0000000
0000000
0000000
0000000
0000000
0000000
1FE0000
1F60000
0000000
1EC0000
0000000
0000000
0000000
0000000
0000000
0000000
0000000
0000000
0000000
0000000
0000000
0000000
0000000
0000000
0080000
0000000
0020000
0040000
0020000
0080000
0040000
0000000
0040000
0000000
0000000
0000000
0000000
0000000
0000000
0000000
0000000
0000000
0000000
0000000
0000000
0000000
0000000
0000000
0080000
0000000
00C0000
01A0000
0240000
0000000
0000000
0040000
01E0000
0000000
0000000
0000000
0000000
0000000
0000000
0000000
0000000
0000000
1FC0000
1FA0000
1FE0000
0000000
0000000
0000000
0000000
0000000
0000000
0000000
0000000
0000000
0000000
0000000
0000000
0000000
0000000
0000000
0000000
0000000
0000000
0000000
0000000
0000000
0000000
0000000
0000000
0000000
0000000
0000000
0000000
0000000
0000000
0000000
0000000
0000000
0000000
0000000
0000000
0000000
0000000
0000000
0000000
0000000
0000000
0000000
0000000
0000000
0000000
0000000
0000000
0000000
0000000
0000000
0000000
0000000
0000000
0000000
0000002
0000002
0000014
0000000
0000000
0000000
0000000
0000000
0000000
0000000
0000000
0000000
0000000
0000000
0000000
0000000
0000000
0020000
0000000
0000000
0020000
000FFFE
0020000
0000000
0000000
0020000
0000000
000FFFA
0000000
0000000
000FFEA
002FFF2
0080000
002FFE8
004FFF8
00CFFF6
000FFFC
000FFF6
00C0000
0000000
0000000
0000004
0000000
0000000
0000000
0000000
0000000
0000012
0000000
0000000
0000000
0000000
0000000
0000000
0000000
0000000
1FE0000
0000000
0000000
0000000
0000000
0000000
0000000
0000000
0000000
000FFFC
0000000
000FFF0
000FFFC
0000000
008FFF8
000FFFE
00C0000
00A0000
0000000
0000000
0000000
0000000
0000000
0000000
0000000
0000000
0000000
0000000
0000000
0000000
0000000
0000000
0000000
0000000
0000000
0000000
0000016
0000000
0000000
0000000
0000000
0000000
0000000
0000000
0000000
0000000
0000000
0000000
0000000
0000000
0000000
0000000
0000000
000FFFA
0000000
0000000
0000000
0020000
0020000
0020000
0040000
0020000
0020000
0000000
0000000
0000000
0000000
0000000
0000000
000FFE6
0000000
0000000
000FFEA
000FFF8
0000000
0000000
0000000
0000000
0040000
0000000
0000000
0000000
0000000
0000000
0000000
000000C
0000000
0000000
0000010
0000000
0000000
0000000
0000012
1FE0000
0000000
0000000
1FC0000
1FE0000
1FE0000
1FE0000
0000000
0000000
1FE0000
0000000
0000000
0000000
0000000
0000000
000FFFC
0000000
0020000
0000000
0060000
0100000
0000000
000FFF0
0000000
0000000
000FFFE
0060000
0000000
0000000
0000000
0000000
0000000
0000000
0000000
0000000
0000000
0000000
0000000
0000000
0000000
0000000
0000000
0000000
0000000
0000000
0000000
0000000
0000000
0000000
0000000
0000000
0000000
0000000
000FFFE
0000000
0000000
0000000
0000000
0000000
0100000
0040006
0060000
0040000
0060000
0060010
0020016
0000000
0000010
0000000
0000000
1FE0000
0000000
0000000
0000000
000FFEC
000FFE2
1F20000
0000000
000FFF8
0000000
000FFE4
0060000
0060000
0000000
0060000
0040000
0000000
0000000
0000000
0000000
0000000
0000000
0000000
0000000
0000000
0000000
1FE0000
1FE0000
0000000
1FA0000
0000000
0000000
0000000
0000000
0000000
0000000
0000014
0000000
000FFFC
0000000
0040000
0000000
0000000
0000000
0000000
0080000
0000000
0000000
0000000
0040000
0080000
0000000
00C0000
0000000
0000000
0000000
0000000
0000000
0000000
0140000
00A0000
0020000
0240000
0000000
0000000
002000C
0000000
0000000
0000000
0000000
0120000
0000000
0000000
0000000
0000000
0000000
0000000
0000000
0000000
0000000
0000000
0000000
0000000
0000000
0000000
0000000
0040008
004000E
0120000
0040018
0060026
0020000
0000008
0000000
0000000
0000000
0000000
0000000
1F80000
0000000
0000000
0000000
000FFF4
0000000
0000000
0000000
0000000
0000000
0020000
0000000
0040000
0020000
0000000
0020000
0000000
0000000
0000000
0000000
0000000
0000000
0000000
0000000
1FA0000
1FE0000
1FE0000
1F80000
0000000
0000000
0000000
0000004
0000000
0000000
000000C
0000000
0000000
0020000
0000000
0000000
0000000
0000000
0000000
0000018
0000000
0000000
0000000
0000006
0040000
0000000
0000000
0000000
0000000
0000000
0020000
0000000
0000000
0020000
0000004
0000000
00E0000
0000000
0000000
0000000
0000000
0240000
0000016
0000000
0000000
0000000
0000000
0000000
0000000
0000000
0000000
0000000
0000000
0000000
0000000
0000000
0000000
000001C
0000014
0000000
0000000
002001A
000001E
0000010
0020000
0000000
0000000
0000000
0000000
0000000
0000000
0000000
1DAFFFE
1FC0000
0000000
1FC0000
1FEFFF2
1FC0000
0000000
0000000
0000000
0020000
0000000
0000000
0020000
0000000
0000000
0020000
0000000
0000000
0000000
0000000
0000000
0000000
0000000
0000000
1FA0000
0000000
0000000
0000000
0000000
0000000
0000000
0000000
0000000
0000000
0000000
0000000
0000000
0000000
0000000
1F8FFFE
0000000
0000000
1F20000
0000000
0000000
0000000
0000000
0000000
0020000
0000000
0020000
0000000
0000000
0000000
0000000
0000000
0020000
0020000
0000000
0000000
000000A
0000000
0000000
0000012
0000000
0000000
0000000
0000000
0000000
0000000
0000000
000FFF0
0000000
0000000
0000000
0000000
0000000
0000000
0000000
0000000
0000000
0000000
0000000
0000004
0000000
0000000
0000010
0000010
0000000
0000000
1EE0000
0000000
0000006
0000000
0000000
0000000
1FC0000
1FEFFFE
0000000
1DA0000
1FE0000
1FA0000
0000000
0000000
0000000
0000010
0000000
0000000
0020000
0000000
0000004
0020000
0000000
0000000
0000000
0000000
0000000
0000000
0000000
0000000
0000000
0000000
0000000
0000000
0000000
0000000
0000000
0020000
0000000
0000000
0000000
0000000
0000000
0000000
0000000
1FA0000
0000000
0000000
1EE0000
0000000
0000000
0000000
0000000
0000000
0040000
0000000
0020000
0000000
0000000
0000000
0000000
0000000
0000000
0000000
0000000
0000000
0000000
0000000
0000000
0000000
0000000
0000000
0000000
0000000
0000000
1FE0000
1FE0000
000FFE4
1FE0000
1FEFFFE
000FFE4
1FE0000
1FE0000
0000000
0000000
0000000
0000000
0000000
0000000
0000000
0000000
0000000
0000000
1F20000
0000000
1EE0000
1D80000
0000000
0000000
1FE0000
0000000
0000000
0000000
0000000
0000000
0000000
0000000
0000000
0000000
0000000
0000000
0000000
0000000
0000000
0000000
0000000
0000002
000000C
0000000
0000000
0040000
0020002
0020000
0000000
0000000
0000000
0000000
0000000
0000000
0000000
0000000
0000000
000000A
0000020
0040014
0000000
0000000
0000000
0000000
0000000
0000000
1F60000
0000006
0000000
1EA0000
0000000
0000000
0000000
0000000
0000000
0000000
0000000
000000C
0000000
0000000
0000000
1FE0000
1F20000
0000000
1FE0000
0000000
0000000
0000000
0000000
0000000
0000000
0000000
0000000
0000000
0000000
0000000
0000000
1FE0000
0000000
1FC0000
0000000
000FFE6
1FC0000
1FC0000
1FE0000
1FC0000
1FE0000
000FFEE
1F80000
0000000
0000000
1F80000
0000000
0000000
1E20000
0000000
1FA0000
1E2FFFA
1FCFFEC
0000000
0000000
0000000
1FC0000
1DCFFF0
0000000
0000000
000FFFE
000FFF4
000FFE4
0000000
0000000
0000000
0000000
0000000
0000000
0000000
0000000
0000000
0000000
0000000
0000000
0000000
0000000
0040000
0000000
0000000
0000000
0000000
0000000
0000000
0000000
0080000
0000000
0020000
000001C
0060000
0000000
0000004
0000000
1FC0000
0000000
0000000
1FC0000
0000000
0000000
1F60000
0000000
0000000
0000000
0000000
0000000
0000000
0000000
0000000
0000000
1FE0000
0000000
1FA0000
1FA0000
0000000
0000000
1FE0000
0000000
0000000
0000000
0000000
0000000
0000000
0000000
0000000
0000000
0000000
0000000
0000000
0000000
1FC0000
1F60000
1FCFFF0
1FA0000
1FA0000
1FC0000
1FC0000
0000000
0000000
1FC0000
0000000
0000000
0000000
0000000
0000000
1FA0000
0000000
0000000
000FFF2
000FFE2
000FFF8
0000000
000FFEC
0000000
1E20000
0000000
0000000
000FFE6
1E8FFF6
0000000
0000000
0000000
000FFF4
0000000
0000000
0000000
0000000
0000000
0000000
0000000
0000000
0020000
0000000
0000000
0060000
0000000
0000000
0000000
0000000
0000000
0000000
0000000
0080000
0000000
0040000
0000000
0040000
0000000
0000000
0000000
1FC0000
0000000
0000000
0000000
0000000
0000000
0000000
0000000
0000000
0000000
1FE0000
0000000
0000000
0000000
0000000
0000000
1F40000
0000000
0000000
1FC0000
0000000
0000000
0000000
0000000
0000000
0000000
0000000
0000000
0000000
0000000
0000000
0000000
0000000
0000000
0000000
0000000
0000000
0000000
0000000
1FC0000
1FC0008
0000000
0000000
1FE0006
0000000
0000000
0000000
0000000
0000000
0000000
0000000
000FFF4
000FFEE
0000000
0000000
0000000
000FFD8
0000000
0000000
0000000
0000000
0000000
0000000
1FAFFEA
1E2FFD2
0000000
000FFF8
000FFF8
0000000
0000000
0000000
0000000
0000000
0000000
0000000
0000000
0000000
0000000
0000000
0000000
0000000
0020000
0000000
0000000
0000000
0000000
0000000
0000000
00A0000
0000000
0060000
0000000
0000000
0000000
0000000
0000000
1FEFFF8
1FE0000
0000000
000FFF0
0000000
0000000
0000000
0000000
0000000
0000000
1F00000
0000000
0000000
0000000
0000000
0000000
1FC0000
0000000
0000000
0000000
0000000
0000000
0000000
0000000
0000000
0000000
0000000
0020000
0000000
0020000
000000A
0000000
0000000
0000000
0000000
0000000
0000000
0000000
0000000
0000000
000000A
0000000
0000000
000000C
0000000
0000000
0000000
0000000
0000000
0000000
0000000
000FFF2
0000000
0000000
000FFEE
000FFDA
0000000
1FE0000
1FE0000
1FA0000
1F60000
1FE0000
1FEFFDE
1FC0000
1E60000
0000000
1DA0000
1FE0000
0000000
1FE0000
0000000
0000000
0000000
0000000
0000000
0020000
0000000
0000000
0020000
0000000
0000000
00A0000
0000000
0000000
0000000
0000000
1FE0000
0000000
0000000
0000000
0060000
000000A
0000000
0000000
0000000
0000000
0000000
0000000
0000000
0000000
0000000
0000000
0000000
0000000
0020000
0000000
1F80000
0000000
0000000
0000000
0000000
000001E
0000000
0000000
0020000
0000000
0000000
0000000
0000000
0000000
0140000
0000000
0000000
0000000
0000000
0000000
0000000
0000000
0000000
0000000
0000000
0000000
0000000
0000000
0000000
0000000
0000000
0000000
0000000
0000000
0000000
0000000
0000016
0000000
1DC0000
1FE0000
0000000
1E00000
0000000
1FE0000
0000000
0000000
0000000
0000000
0000000
1FE0000
0000000
0000000
0000000
0000000
0000000
0000000
0000000
0000000
0000000
1D80000
1D80000
1F80000
0000000
0000000
0000000
0000000
0000000
0000000
002FFF4
0000000
0000000
0180000
0100000
0000000
0000000
0000000
0000000
0000000
0000000
0000000
0000000
0000010
0000000
0000000
0000000
0000000
1FE0000
0000000
0000000
000FFF6
0000000
0000000
0000000
0000000
0020000
1FC0000
1F80000
0000000
0000004
0000000
0000000
0000010
0000000
0000000
0000000
0000000
0000000
00C0000
0000000
0000000
0000000
0000000
0000000
0000000
0000000
0000000
0000000
000FFFA
0000000
0000000
0000000
000FFF2
0000000
0000000
0000000
0000000
0000000
0000000
0000000
0000000
0000000
000000E
0000000
0000000
0000000
0000000
0000006
0000000
0000000
0000000
000FFFA
0000000
0000000
000FFFC
0000000
0000000
0000000
0000000
0000000
0000000
0000000
0000000
0000000
0000000
0000000
1D80000
0000000
0000000
0000000
0000000
0000000
0020000
0000000
0000000
002FFEA
0000000
0000000
018FFFC
012FFFE
0000000
0000000
0000000
0000000
0000000
0020000
0000000
0080000
0060000
0000000
000FFF0
0000000
0000000
1FA0000
1F80000
0000000
1FE0000
0000000
0000000
0000000
0000002
0000000
1FE0000
1FA0000
1FE0000
0000000
0000000
0000000
0000000
0000000
0000000
0000000
0000000
0000000
0000000
0000000
0000000
0000000
0000000
0000000
0000000
0000000
0000000
0000000
0000000
0000000
0000000
0000000
0000000
0000000
0000000
0000000
0000000
0000000
0000000
0000000
0000000
0000000
0000000
0000000
0000000
0000000
0000000
0000000
0000000
0000000
0000000
000FFF8
0000000
0000000
000FFF4
000FFFE
0000000
0000000
0000000
0000000
0000000
0000000
0020000
0000000
0000000
0000000
1E60000
1E40000
0000000
0000000
0000000
0020000
0040000
0000000
0000014
0000000
0000000
0000000
000FFE8
0000000
0000000
0000000
0020000
0000000
0040000
0280000
0000000
0020000
0000000
0000000
0000000
0000000
000FFEE
1FA0000
1FC0000
0000000
0000000
0000000
0000000
0000000
0000002
0000002
1FE0000
1FC0000
0000000
0000000
0000000
0000000
0000000
0000000
0000000
0020000
0000000
0000000
0020000
0000000
0000000
0000000
0000000
0000000
000FFF2
000FFDA
0000000
000FFFE
0000000
0000000
0000000
0000000
0000000
0120000
0000000
0000000
00C0000
0080000
0080000
0000000
0000000
0040000
0000000
0000000
000000E
0000000
0000000
0000000
0000000
0000000
0000000
0000000
0000000
0000000
0020000
01A0000
0000000
0000000
0260000
01E0000
0080000
0040000
00E0000
0040000
0000000
0020000
0000000
0000000
0000000
0020000
0000000
0000000
0000000
0000000
0000000
0000000
0000000
0000000
0000000
0000000
0000000
0000000
0020000
0000000
0160000
00E0000
0000000
0000000
0060000
0000000
0000000
0000000
000FFF6
1FE0000
0000000
0000000
0000000
0000002
0000000
0000000
000002A
0000002
0000000
1FE0000
0000000
0000000
0000000
0000000
0000000
0000000
0000000
0020000
0000000
0000000
0020000
0000000
0000000
0000000
0000000
0000000
000FFF6
000FFE4
0000000
0000000
0000000
0000000
0040000
0000000
000FFFA
0020000
0180000
0000000
0120000
00C0000
0060000
0060000
0060000
0060000
0000000
0000000
0000000
0000000
0000000
0000002
0000000
0000000
0000000
0000000
0000000
0000000
0020000
0100000
0000000
0180000
01E0000
0020000
0100000
0000000
0160000
0000000
0000000
0000000
1C00000
1C00000
1D40000
1F60000
1FC0000
1FE0000
0000000
1E20000
1EA0000
0000000
0000000
0000000
0000000
0000000
0000000
0000000
0080000
0000000
0160000
00E0000
0000000
0000000
0260000
0060000
0000000
0000000
0000000
0000000
0000000
0000000
0000000
0000000
0000000
0000000
1FE0000
0000000
0000000
0000000
0000008
0040000
0020000
0040000
0000000
0020000
0000000
0000000
0000000
0000000
0000000
0060000
0000000
0000000
00C0000
0000000
0000000
0000000
000FFE4
0000000
0000000
0000000
0000000
00C0000
0000000
0000000
0000000
0000000
0020000
006FFEC
000FFF6
0080000
00C0000
0040000
0000000
0000000
0000004
00A0000
0040000
0000000
00E000C
0020002
0000000
0000000
0000000
0000000
0000000
00E0000
0000000
01E0000
0180000
0000000
000FFF8
0000000
0000000
0000000
0000000
0000000
0000000
1F80000
1FC0000
1EE0000
1FA0000
1FA0000
1C20000
1CA0000
1CC0000
1EC0000
0000000
1F60000
000FFFA
0000000
0000000
0000000
0000000
0000000
0000000
0080000
0000000
0000000
0060000
0000000
0000000
0000000
0000000
0000000
0000000
0000000
0000000
0000000
0000000
0000000
1FC0004
0000000
0000000
0000000
0020000
0000000
0000000
0020002
0060000
0020000
0000000
0020000
0020000
0000000
0020000
0000000
0000000
0000000
0000000
0000000
0000000
0000000
0000000
0000000
0000000
0000000
0000000
0000000
0000000
000FFFC
0000000
0000000
0020000
0020000
0000000
0040000
0060000
0000000
0000000
0000000
0000000
0000000
0000000
0000000
0000000
0000000
0000000
0000000
0000000
0000000
0000008
0000006
0000000
0220000
0000006
000000A
0120000
0000000
0000000
0000000
0000000
0000000
0000000
0000000
0000000
0000000
0000000
1F80000
000FFF0
0000000
0000000
1E20000
1E20000
1E80000
000FFEC
0000000
1FE0000
0000000
0000000
0000000
0000002
0000000
000000E
0020000
0000000
0000000
0000000
0000000
0000000
0000000
0000000
0000000
0000000
0000000
0000000
0000000
0000000
0000000
0000000
000000A
0000002
0000000
0000000
002001E
006001C
0020000
002001A
0040000
0000000
0000000
0020000
0000000
0000000
0000014
0000000
0000000
0000000
0000000
0000000
0000000
0000000
0000000
0000000
0000000
0000000
0000000
0000000
0000000
0000000
000FFF8
0000000
0000000
0000000
0000000
0000000
0000000
0000000
0000000
0000000
0000000
0000000
0000000
0000000
0000000
0000000
0000000
000002E
0000014
0000000
000002A
0000010
0000004
0400000
0000000
0060000
0220000
0000000
00A0000
0020000
0000000
0000000
1FC0000
0000000
0000000
1DA0000
1DE0000
1E60000
1F60000
0000000
0000000
1F8FFFE
000FFFA
1F40000
0000000
0000000
0000000
0000000
0000000
0000000
0000000
0000000
0000000
0000000
0000000
0000000
0000000
0000004
0000000
0000000
0000000
0000000
1F4FFF4
1FEFFFE
000FFFA
0000000
0000000
0000000
0000000
0000000
0000000
0000000
0000000
0000000
0000000
0000000
0000000
0000000
0000000
0000000
0000000
0000000
0000000
0000016
1FE0000
1FE0000
0000000
1FE0000
1FC0000
0000000
0000000
1FC0000
0000000
0000000
0000000
0000000
0000000
0000000
000FFF6
0000000
000FFEE
0000000
0000000
0000000
0000000
0000000
0000000
002FFF6
000FFE4
0000000
0000000
1D40000
1EC0000
0000012
1FC0012
1FE0000
000002C
0000000
000001A
04A0000
0120000
0040000
0340000
0260000
0020000
0080000
0000000
0000000
0000000
0000000
0000000
0000000
1E80000
1F80000
0000000
0000000
0000000
1F00000
0000000
1FC0000
0000000
0000000
1F80000
0000000
0000000
0000000
0000000
0000000
0000000
0000000
0000000
0000000
0000000
0000000
0000000
0000000
0000000
000FFFA
0000000
000FFFE
000FFFE
0000000
0000000
0000000
0000000
0000000
0000008
0000000
0000000
0000000
0000000
0000000
0000000
0000000
0000000
0000000
0000000
0000000
0000000
0000000
0000000
0000000
0000010
1FE000A
1FE0000
0000000
1FE0000
1FC0000
0000000
0000000
0000000
0000000
0000000
0000000
0000000
0000000
0000000
0000000
0000000
0000000
0020000
000FFF4
0020000
0000000
000FFF4
1FC0000
0000000
1C0FFDE
1CA0000
0000000
1FE0000
1F40000
0000038
1FE0006
1F00000
02A000C
00E0000
0040000
05A0010
036000C
0320000
0280000
00E0000
0020000
0000000
0000000
0000000
000FFE6
1F2FFFC
000FFEC
1F0FFF0
000FFE2
000FFDA
000FFEC
0000000
0000000
1F80000
0000000
1FC0000
1F20000
0000000
0000000
1FE0000
0000000
0000000
0000000
0000000
0000000
0000000
0000000
0000000
0000000
000FFFE
0020000
0000000
0000000
0000000
0000000
0000000
0000000
0000000
0000000
0000000
0000000
0000000
0000002
0000000
0000000
0000000
0000000
0000000
0000000
0000000
0000000
000FFFE
0000000
0000000
0000000
0000002
1FE0000
0000000
0000002
0000002
0000018
0000000
0000008
0000000
0000000
0000000
0000000
0000000
0000000
0000000
0000000
0000000
0000000
000FFFC
0000000
0000000
000FFE8
1F6FFE4
000FFF4
0000000
1CCFFF4
1DC0000
0000000
1EC0000
1FA0000
0000028
0000012
1FC0000
03A0002
02A0000
0080000
03C001A
042000E
0120000
0020000
0140000
00E0000
0000000
0000000
0000000
1FE0000
0000000
000FFFE
000FFFE
0000000
0000000
000FFE6
000FFF2
0000000
1F80000
0000000
1FE0000
1F40000
1F40000
0000000
0000000
0000000
0000000
0000000
0000000
0000000
0000000
0000000
0020000
0000000
0000000
00A0000
000FFF6
0000000
0000000
000FFFC
1FA0000
0000000
0000000
0000000
0000000
0000000
0000000
0000000
0000000
0000000
0000000
002FFFE
0000000
002FFFE
0000000
0000000
002FFFE
0000000
0000000
000FFFE
1FC0000
1FA0000
0000000
1FC0020
1FA0000
0000000
0000022
0000000
0000000
0000014
0000000
0000000
0000000
0000000
0000000
0000000
1FE0000
0000000
0000000
1FEFFDE
000FFF8
000FFEE
1FEFFD8
000FFF8
0000000
000FFDC
0000000
0000000
1FC0000
0000000
0000032
0000008
000001A
0100010
004000E
0000000
02A000C
0000000
0000000
0000000
0080000
0060000
0000000
0000000
000FFFC
000FFFC
1F20000
000FFFE
000FFE8
0000000
0000000
0000000
0000000
000FFFA
0000000
0000000
0000000
000FFF8
0000000
0000000
0000000
0000000
0000000
000FFFC
0000000
002FFF8
00A0000
0040000
0120000
0000000
0000000
0060000
0000000
0000000
0000000
0000000
0000000
0000000
0000000
0000000
0000000
0000000
0000000
0000000
000FFFE
0000000
000FFFE
0040000
0000000
004FFFE
0000000
0000000
0020000
0000000
0000000
000FFFE
1FC0000
0000000
0000000
1FC0000
1FC0000
0000000
0000000
0000000
000000C
0000002
0000000
0000000
1F20000
1FA0000
0000000
1FA0000
1F80000
0000000
1F80000
1F00000
0000000
0000000
000FFF2
0000000
000FFFE
000FFF6
000FFF6
0000000
0000000
0000000
000001A
0000014
0000000
022001E
00E0000
0000014
018000C
00A0000
0000000
0000000
0000000
0000000
0000000
1EE0000
000FFFC
0000000
1E40000
1F8FFFE
0000000
0000000
0000000
000FFD0
000FFEE
000FFF8
0000000
0000000
0000000
000FFFE
0000000
0000000
0000000
0000000
0000000
002FFFA
0020000
002FFFE
00C0000
00A0000
01A0000
0000000
0000000
004FFFA
000FFFA
0000000
0000000
0000000
0000000
1FE0000
0000000
0000000
0000000
0000000
0000000
0000000
000FFFE
0000000
000FFFE
0040000
0020000
006FFFA
0000000
0000000
0040000
0000000
0000000
000FFE6
0000000
0000000
0000000
0000000
0000000
0000000
0000018
0000014
0040000
0000000
0000000
0000000
1FA0000
1FE0000
0000000
1FC0000
1FC0000
0000000
1F80000
1F00000
0000000
0000000
0000000
0000000
0020000
0000000
0000000
0000004
0000000
0000016
0000000
00E0012
0000004
01E000C
030000C
0000000
0000000
0020000
0000000
000FFDE
000FFF0
000FFE6
0000000
1D20000
1FE0000
000FFFC
1E20000
1F40000
000FFEA
0000000
0000000
000FFEE
0000000
0000000
0000000
0000000
0000000
0000000
0000000
0000000
0020000
0000000
0000000
0040000
0000000
0040000
0040000
0040000
0000000
0000000
0000000
0000000
1FE0000
0000000
0000000
0000000
1F80000
1FE0000
0000000
0000000
0000000
0020000
0000000
0000000
0000000
0000000
0000000
0020000
0000000
002FFFE
0020000
0000000
002FFF8
0000000
0000000
0020000
0000000
0000000
0000000
0000000
0000000
0020000
0000024
0020022
008000A
0000004
0000000
0020000
0000008
0000000
000000E
0000000
0000000
0000000
1F00000
1EA0000
0000000
0000000
1FE0000
0000000
0000000
0000000
0000000
0000016
0000000
0000000
0160000
0100000
0000004
0360000
0000000
0000000
0060000
000FFF0
0000000
000FFD6
0000000
000FFE0
0000000
1F2FFF0
000FFFC
1EAFFEA
1E60000
1F00000
0000000
0000000
0000000
000FFF2
0000000
0000000
0000000
0040000
0000000
0000000
0000002
0000000
0000000
0000000
0000000
0000000
0000000
0000000
0000000
0000000
0000000
0000000
0000000
0000000
0000000
0000000
0000000
0000000
0000000
1FE0000
0000000
0000000
0000000
0040000
0000000
0000000
0000000
0000000
0000000
0000000
0000000
0000000
0000000
0000000
000FFFE
0000000
0000000
000FFF2
0000000
0000000
000FFEC
0000006
0000000
0020000
0000000
0020000
0080000
0000000
0020000
0080000
0000012
0000000
0000000
1FC0022
1FC0000
000001A
000000E
1F80000
000001A
0000000
000000C
0000004
0000000
0000000
0000000
0000000
0160000
0000000
0200000
0220000
0000000
0000000
0000000
0000000
000FFDC
000FFFA
000FFFE
1FCFFDA
1FEFFDA
000FFE8
1DE0000
1D60000
1EA0000
000FFF2
1D80000
0000000
0000000
0000000
0000000
0000000
0000000
0000000
0000000
00C0006
0000000
0000000
000000A
0000000
0000000
0020000
0000000
0060000
00E0000
0080000
0000000
0020000
0000000
0000000
0000000
0020000
0000000
000001E
0000000
0000000
000FFFA
0000000
0000000
000FFF6
000FFFA
0000000
0000000
1FC0000
0000000
0000000
0000000
0000000
0000000
1FA0000
0000000
0000000
000FFF6
0000000
0000000
0000000
0000000
0000000
0000000
0000000
0000000
0000000
0000000
0000000
0040000
0000000
0020000
0140000
0000000
0000000
0080000
0000004
0000000
0000000
000002C
000001C
0000026
0000000
0000010
0000020
000000E
0000000
000000A
0040000
0000000
0000000
0380000
014FFF6
000FFE6
000FFDC
000FFE8
000FFEC
000FFD0
000FFE6
1FEFFEC
1D6FFF4
1FAFFF6
1FAFFE2
1FCFFF6
1C40000
1FC0000
1D60000
1FE0000
1EE0000
0000000
0000000
0000000
0000000
0000000
0000000
0080000
0120006
0120000
0140000
0020024
0000002
0000000
0000000
000000C
0140000
0240000
0180000
0000000
0040000
00A0000
0000000
0000004
01E0000
000001C
0000000
0040000
0000000
0000000
0000000
0000000
0000000
0000000
0000000
1FC0000
1DC0000
1FA0000
1F40000
1FE0000
0000000
1FE0000
000FFF8
000FFFA
0000000
0000000
0000000
0000000
0000000
0000000
000FFF0
000FFE2
0000000
000FFF8
0000000
0000000
000FFF4
0000000
0020000
0000000
00C0000
0000000
0000000
00A0000
000001E
0000008
0000004
0000024
1FE000E
0000034
000001C
0000030
0000016
0000002
00C0000
0000002
00E0000
0000000
0000000
0020000
024FFEC
00A0000
000FFDA
000FFC0
000FFDE
000FFCE
1F8FFCA
1FCFFC6
1FCFFF6
1E6FFF2
1FC0000
0000000
0000000
1EC0000
0000000
0000000
1FC0000
0000000
0000000
0000000
0000000
0000000
0000000
0080012
0020006
0000000
0040000
018001E
0000020
0000000
0000000
0000000
0000000
0000000
0000000
0000000
0040000
0000000
0000002
0000000
0000000
0000000
0000014
0000000
0000000
0000000
0000000
0000006
0000000
0000000
0000000
0000000
0000000
0000000
1EA0000
1FE0000
0000000
0000000
0000000
0000000
0000000
0000000
0000000
000FFFC
0000000
0000000
0000000
0000000
0000000
000FFF4
000FFDA
0000000
0000000
0000000
0000000
0000000
0000000
00A0000
0000000
006FFF8
000000E
0000000
0000000
000002E
000002C
0000032
0000000
0000034
0000006
0080000
0000000
0000000
0020000
0000000
0000000
0020000
0020000
000FFD8
000FFEE
000FFE0
000FFD8
0000000
0000000
1E6FFFA
1C8FFF6
1CE0000
1F2FFF6
1FA0000
1E60006
0000000
0000000
0000000
0000000
0000000
0000000
0000000
0000000
0040000
000001A
0000002
01C0010
0000014
0000000
0000020
0000020
0000000
0000000
0000000
0000000
0000004
0000000
0000000
0000000
0000000
0000000
0000000
0000000
0000000
000000E
0000000
0000000
0000000
1F60000
0000004
0000000
0000000
0000000
0000000
1DA0000
0000000
0000000
0000000
0000000
0000000
0000000
0000000
0000000
0000000
0000000
0000000
000FFFC
0000000
0000000
0000000
0000000
0000000
000FFEE
0020000
000FFFC
0000000
0040000
0060000
0040000
0020000
006FFEC
002FFFC
0100000
0000000
0000000
0000020
0000024
0000028
0000040
0040000
0000030
0040018
02E0000
0000000
0200000
0000000
0000000
00A0000
00C0000
000FFEE
000FFF6
0020000
000FFEC
0000000
0000000
0000000
1D80000
1EA0000
1FE0000
0000000
000000E
0000000
0000004
0000000
0000000
0000004
0000000
0000000
0000000
000000E
0000000
000001E
0000000
0000000
0000000
000000C
0000000
0000000
0000000
1FE0004
0000000
0000000
0000000
0000020
0000006
0000000
0000004
0000000
1FE0000
0000000
0000000
0000000
0000000
000FFF0
0000000
0000000
0000000
0000000
0000000
0000000
0000000
0000000
0000000
0000000
0000000
0000000
000FFF8
0000000
0000000
0000000
0000000
0000000
0000000
0000000
0000000
000FFE8
0000000
0000000
0000000
0060000
000FFF4
000FFFA
0040000
0140000
0000000
00AFFFC
0080000
0000000
0000000
0000000
0000000
0000000
0000000
0000000
0000000
0000000
0000000
0000000
0020000
0000000
000FFE2
0020000
0000000
000FFCE
000FFF0
0000000
0000000
000FFFA
0000000
000FFF2
000FFF2
1F2FFFA
1BE0000
1FC0000
1D60000
0000000
1EA0000
0000000
0000000
0000000
0000000
0000000
0000006
0000000
0000022
0000004
0000016
0000006
000000C
1FE000E
1FE0000
0000000
1FC0000
1F40000
0000000
1FA0000
1FA0000
0000000
1FA0000
1FA0000
0000000
1FA0000
1F60000
0000000
1FC0000
1F80000
0000000
1FEFFFA
1F20000
0000000
0000000
1F80000
0000000
0000000
1F80000
1FE0000
0000000
1DC0000
1FA0000
1FA0000
1FA0000
1FC0000
1FC0000
0000000
0000000
1FC0000
0000000
1F80000
0000000
1E80000
0000000
1FA0000
1F00000
0000000
0000000
0000000
0000000
0000000
1FA0000
0000000
0000000
0000000
0000000
0000000
1FA0000
0000000
0000000
0000000
0000000
0000000
000000C
0000000
0020000
0000000
00E0000
0000000
000000A
0000000
0060000
0000000
0080014
0000000
0020000
0000000
0000000
0020000
02E001E
0000000
0000000
0180016
000000C
0060000
02C0000
0000000
0020000
0040000
0000000
000002C
0000000
000000C
0000000
0000018
0000002
000000A
0000002
0000000
0000000
0000000
0000000
0000000
0000000
0000000
0000002
0040000
000000C
0000002
0080000
0020016
0000004
0000004
0000004
0000000
0000000
1FE0000
0000000
0000000
0000000
0000000
0000000
0000000
1FC0000
0000000
1FE0000
1F80000
1FC0000
1FA0000
0000000
0000000
0000000
0000000
0000000
0000000
0000000
0000000
0000000
1FC0000
0000000
0000000
0000000
0000000
0000000
0000000
0000000
0000000
0000000
0000000
0000000
0000000
0000000
0000000
0000000
0000000
0000000
0000000
0000000
0020000
0000000
0000008
0000000
0000000
0000000
0000000
0000000
0000008
0000000
0000000
000000A
0000000
0000002
0000000
000000A
0000000
0280000
00A0000
000001C
0060000
0000018
0000000
0000000
000000C
0000000
000000E
0120000
0000000
0000000
0000008
0000000
0000000
0000000
0000000
0000000
0000000
1E60000
0000000
0000000
0000000
0000000
0000000
0000000
0020000
0000000
0000000
0060000
0000002
0000000
0000000
0000000
0000002
0000000
0000000
0000000
0000000
0000000
0000000
0000000
000FFFC
0000000
000FFF8
000FFFE
1FA0000
0000000
0000000
0000000
0000000
0000000
0000000
0000000
0000000
0000000
0000000
