000
3FE
000
000
000
000
000
042
000
0DA
000
060
000
000
000
000
000
000
000
000
000
000
000
000
000
000
000
000
000
000
066
000
000
000
000
000
040
000
000
000
000
000
000
000
000
386
06C
3FE
3FE
000
000
002
36C
002
000
3B2
000
000
000
000
000
000
000
000
000
000
000
000
008
000
000
000
000
3F2
000
000
000
04A
000
000
000
3EE
000
3AC
000
000
000
008
000
000
000
000
01A
3EC
39A
036
3E6
3F2
000
000
000
000
000
000
000
000
000
3EA
000
000
066
000
000
000
000
06E
000
000
000
000
000
3F0
010
000
394
000
000
000
000
000
000
000
000
000
000
000
000
096
07C
000
000
3DC
000
000
000
000
3F8
000
000
002
000
000
028
000
000
000
004
000
000
000
000
000
05A
000
000
000
000
000
000
3BE
000
000
000
000
036
000
000
000
000
34C
3BE
000
3EC
000
000
038
000
000
000
000
000
020
000
000
3B2
000
000
39C
3B8
000
000
000
000
07E
000
3C0
000
000
3CC
000
000
000
000
000
000
3FE
000
000
000
000
000
000
000
000
3AE
000
000
00A
000
000
000
000
086
000
0BE
000
000
000
39A
000
000
028
000
116
000
000
08C
000
000
000
01A
000
000
3EA
000
000
000
000
000
106
000
386
000
000
048
000
0CA
000
000
000
362
000
000
000
000
36E
000
000
000
000
000
3C6
000
000
000
000
000
000
000
000
000
000
000
000
000
080
396
000
000
3FA
3F8
3AA
000
000
3F6
000
3E8
000
000
000
3D8
000
000
000
000
000
000
000
000
000
3E0
000
348
000
000
000
34E
396
000
000
000
3F8
000
000
000
3E6
3DC
054
082
00A
000
000
000
000
000
000
000
032
000
060
000
000
000
000
05C
000
000
000
06C
000
000
000
000
3E6
03C
000
000
000
000
000
000
3A4
38C
000
000
000
000
092
000
000
3B4
000
000
000
058
000
000
000
000
000
000
000
000
000
000
000
000
00A
0C6
000
000
01E
000
000
000
000
000
3A2
000
000
000
000
000
000
000
000
000
000
000
3FC
000
082
046
000
032
000
000
000
000
000
07C
3F6
000
000
000
000
000
000
388
000
000
000
000
000
000
050
000
000
000
39C
044
086
000
000
000
000
000
000
000
000
000
3EC
000
068
000
000
000
000
000
068
000
000
000
000
000
090
000
000
000
000
3E4
3F6
000
000
3FA
000
000
09C
3CE
000
000
000
0DA
000
000
000
000
3F4
000
000
386
000
02C
000
000
000
000
000
000
000
000
3FA
000
000
3FC
000
000
000
000
06C
000
000
000
000
000
000
000
000
000
042
000
0FA
000
000
000
0AE
000
000
000
010
000
000
000
05A
000
000
000
000
064
000
000
000
000
000
098
000
376
032
3D4
000
000
000
000
000
000
062
000
000
346
000
000
000
000
000
000
000
000
000
000
000
000
000
05A
000
000
000
000
000
000
078
000
3FE
000
000
000
000
000
000
000
000
056
000
39C
08A
060
0B0
3EA
3C2
000
330
000
3F0
000
3B4
000
000
000
000
000
028
000
000
39A
000
044
000
000
000
3A6
000
000
01C
000
000
000
000
000
086
000
000
000
000
000
0B0
056
000
000
000
000
000
000
000
002
3C0
3B0
000
000
000
000
026
064
000
000
000
000
0A8
000
000
000
000
000
3D0
000
3F4
000
010
000
000
000
384
396
000
000
000
000
000
000
3EC
000
000
3DE
000
3CC
000
3CE
000
096
000
35A
000
0C2
002
000
062
000
000
000
3A8
000
000
2F0
000
000
000
000
000
000
000
000
3FC
000
044
034
000
064
000
01C
000
010
000
000
094
000
3C2
000
3B8
042
000
000
000
000
05C
3B4
000
044
000
000
000
000
000
000
000
000
000
000
000
000
000
000
000
018
078
000
3C4
000
000
000
000
000
000
000
000
000
000
000
002
000
000
000
000
3CC
000
000
000
000
000
000
070
3DA
000
000
000
350
000
000
000
000
000
000
000
02A
000
000
000
000
000
000
000
000
000
000
000
000
000
000
000
000
000
000
000
000
000
000
000
000
000
000
000
000
000
000
000
000
000
01C
02E
000
000
3D0
000
000
000
000
3B2
000
000
000
000
000
000
000
000
000
000
000
000
096
000
064
000
3F2
000
000
000
000
000
3AE
000
3B0
000
000
008
000
000
000
000
000
000
05C
3F8
03A
000
000
000
000
000
000
000
3EA
000
046
00A
000
0B0
000
03C
3DC
000
022
000
000
000
000
000
07A
082
000
000
000
000
006
000
000
000
000
000
000
3F0
000
000
000
000
000
396
006
000
3F4
000
000
048
000
000
000
008
378
000
000
000
000
000
000
000
000
000
000
000
362
000
000
000
000
000
000
000
000
000
36C
000
000
000
000
000
000
000
000
034
000
3B8
000
000
000
000
06A
000
000
034
000
3B8
064
000
3DA
000
000
000
000
000
3FE
3FE
000
000
000
054
000
000
000
000
000
000
000
038
000
000
000
09C
3EA
000
000
032
3FC
000
3E8
3F0
31A
3B2
060
3BC
3F2
000
000
000
000
3FA
000
000
000
000
000
3F6
000
014
000
000
000
000
000
000
014
000
000
07E
000
000
000
3FE
0AC
002
000
022
000
000
000
358
09E
054
386
000
38E
000
3F2
000
000
000
000
04A
06E
000
0B8
3F8
000
000
000
000
004
368
000
000
000
000
000
000
3C6
3F6
000
07A
046
000
000
000
034
000
000
000
3FE
008
000
3F4
000
000
088
384
000
000
000
000
3B6
03E
000
000
000
000
000
082
000
000
000
37E
000
000
000
000
000
000
000
036
000
024
044
382
000
000
2E0
012
000
002
000
36E
000
000
000
000
000
000
000
062
000
3FE
066
000
000
000
000
000
000
000
0B0
000
3FA
000
000
00A
000
3FE
000
002
3F0
000
0AC
3F6
000
000
000
000
000
000
3F4
000
056
000
3EE
030
03E
000
000
000
000
02C
3FE
000
000
000
000
000
3EA
000
39C
000
000
3F2
000
03E
000
000
000
000
000
000
000
000
000
000
022
000
092
000
3FA
01C
306
000
000
000
000
000
000
000
000
000
000
000
000
000
000
3FA
000
000
000
3FA
06C
000
3DC
000
3F2
000
000
00E
000
000
000
000
000
000
000
000
000
000
000
046
000
000
000
000
000
000
000
000
000
000
000
000
07E
000
000
000
000
000
000
000
000
000
386
000
0D6
000
000
000
000
000
000
000
000
000
000
000
3DA
000
000
054
000
000
06C
000
000
000
000
3FE
3FE
000
000
000
000
000
37C
000
000
000
000
000
000
000
000
000
000
000
000
000
000
000
000
00E
000
000
000
000
000
000
000
000
000
000
000
000
000
000
000
000
000
000
000
000
000
000
000
01A
000
000
000
000
000
000
000
000
000
3A0
000
000
000
3E4
000
000
000
000
3FE
000
026
000
000
000
000
000
000
2F0
000
000
000
000
000
000
000
000
000
000
000
000
002
000
000
000
000
000
000
000
000
038
000
3F8
000
000
000
034
000
000
370
000
000
066
000
000
000
000
3C6
000
060
000
002
016
000
000
04E
000
000
000
01A
000
000
000
000
000
002
000
000
000
000
000
000
000
092
042
000
3F0
000
000
000
000
000
000
0BC
06E
000
000
000
000
000
000
000
00C
000
3FE
3FA
008
35A
000
026
000
000
000
000
004
000
000
000
000
000
092
000
000
000
026
000
000
000
000
000
000
000
000
000
000
000
3EA
000
0A8
3FC
000
000
3E8
000
000
000
000
000
000
000
000
000
000
000
000
000
3AC
000
000
000
000
000
000
000
072
000
000
006
000
008
000
000
000
000
000
000
3E8
000
000
000
000
3F4
000
398
000
000
000
000
000
000
000
000
000
000
000
000
000
000
000
3C6
000
000
000
000
000
000
000
000
000
000
37A
000
000
000
000
37E
000
06C
000
000
000
000
000
000
000
000
000
3F2
000
000
03E
3FE
000
000
000
000
000
000
000
000
3B8
000
3E6
000
000
000
000
000
000
000
000
000
000
090
000
000
000
000
3C2
03C
000
000
000
000
000
000
000
000
000
000
000
000
000
000
000
3E6
000
384
000
000
000
000
000
004
03E
002
000
000
000
042
000
000
000
000
000
000
000
000
000
000
000
000
000
000
396
000
000
000
000
000
034
000
000
000
000
000
000
000
39E
000
000
000
040
000
000
000
000
000
000
0B0
000
000
000
000
000
000
000
000
050
000
000
000
000
000
000
000
000
000
000
03C
000
000
000
000
022
000
3D6
000
000
000
000
3A4
000
000
000
000
000
000
000
00A
000
000
000
372
000
000
000
000
000
000
000
000
000
392
000
000
000
000
000
000
000
000
02A
002
004
000
000
000
000
000
000
000
000
000
000
000
000
026
05A
000
000
000
000
000
000
000
000
000
000
000
000
000
000
000
05A
000
000
000
000
000
000
000
000
000
000
000
092
000
000
000
000
000
000
3A2
00E
000
000
000
000
000
000
000
000
3FE
000
004
000
04C
000
000
000
034
000
000
000
000
000
000
000
362
000
000
000
000
006
000
000
000
000
000
000
000
000
000
00E
000
3C0
042
000
000
000
000
000
06E
000
008
000
000
000
00E
000
000
358
000
000
000
02E
000
000
000
000
000
000
000
000
000
000
3FA
03E
004
000
000
39C
000
000
008
000
000
000
3E0
000
000
000
000
092
000
000
3E0
000
028
000
000
000
0F6
000
000
000
000
000
000
000
000
000
018
000
000
000
000
000
000
000
360
000
000
000
000
000
000
000
000
000
000
000
3AA
000
00C
000
000
3D8
000
000
000
000
000
000
000
006
006
000
000
3FA
000
000
3BA
000
3EA
000
000
000
000
014
3E2
084
000
000
000
000
08A
028
022
054
000
000
000
3DC
3FE
000
000
000
000
000
004
000
000
000
004
000
016
000
000
38E
066
000
000
000
000
000
000
000
000
048
000
000
000
00C
000
000
000
030
000
3A4
000
080
000
008
016
000
000
3FE
000
000
3FA
000
000
3F8
000
002
000
3D4
000
000
000
000
000
3FE
000
000
014
000
000
000
000
000
000
000
3F4
000
3FE
002
000
37C
3FA
000
006
0A6
000
000
000
000
000
000
000
3B0
000
09E
000
3F8
000
000
002
024
066
3D8
000
078
000
070
3C2
000
3AC
000
000
3E0
000
3FE
000
000
356
000
3A6
000
378
000
3B2
000
000
3BE
01E
3CE
000
000
000
000
07A
000
000
000
000
000
000
000
000
000
000
000
000
000
000
000
000
000
000
000
06A
000
000
3EC
000
3F8
000
000
000
000
3F4
000
000
002
3FC
000
000
000
000
3F0
000
000
000
38E
090
000
000
000
000
000
000
000
000
356
000
000
000
000
000
0D2
000
36E
09E
000
000
000
000
000
000
000
04A
000
398
3EE
000
04E
084
000
000
000
3A6
000
000
000
3CC
000
000
036
07E
000
000
076
000
3EC
000
066
000
04E
000
000
000
064
388
000
000
000
3CA
3DE
000
000
000
07A
000
000
000
000
036
000
3E4
000
000
000
000
000
000
3CA
000
000
000
000
002
390
04A
000
068
074
394
000
000
000
050
000
076
3D0
394
000
000
322
000
368
018
000
07E
000
000
09E
000
00C
000
3E8
000
000
000
000
000
000
000
000
000
3E8
3CE
06A
000
008
000
000
000
000
3DC
000
000
000
3EE
004
000
000
04A
3CE
000
37C
036
000
3EE
000
000
01C
0BE
36C
000
000
000
000
3E4
000
000
000
000
000
3CA
000
000
398
3D0
000
000
000
000
000
000
09C
000
3D2
000
000
000
07E
000
02E
000
000
000
010
016
032
3FC
06A
000
000
000
000
0B8
000
000
000
000
000
000
000
000
000
000
000
000
000
3C6
000
000
000
000
01C
3B8
000
3DC
000
000
000
000
000
000
0D6
074
000
000
000
000
03E
37A
3AE
000
000
000
000
000
326
000
000
000
000
000
000
000
3DE
0BE
000
090
3FE
000
000
000
000
000
000
000
000
000
000
000
000
000
000
000
000
000
000
000
000
000
000
000
000
000
000
004
000
000
000
000
000
3A6
000
000
000
000
000
000
000
000
000
000
000
000
000
000
000
000
000
000
000
000
000
000
000
000
000
000
000
000
000
000
000
00E
000
000
000
000
000
000
000
000
000
000
000
000
3B8
000
000
000
000
000
000
000
000
000
000
000
000
000
000
000
000
000
000
000
000
000
000
000
000
000
000
000
000
000
000
000
000
000
000
000
000
014
000
000
000
000
000
000
3FA
000
000
000
000
016
3BC
000
000
000
000
000
000
000
000
000
000
000
000
000
000
000
000
000
000
000
000
000
000
000
082
000
000
000
026
000
000
000
000
000
000
000
000
000
000
000
000
000
024
024
000
000
000
000
000
000
006
000
000
000
000
000
000
000
000
000
000
000
000
000
000
000
000
000
000
000
000
000
000
000
000
000
000
000
000
000
000
000
000
000
000
000
000
000
000
000
000
000
000
000
000
000
000
000
000
000
000
000
000
000
000
000
000
000
000
000
000
000
000
000
000
000
000
000
000
000
000
000
000
000
000
000
000
000
000
000
000
000
000
000
000
000
000
000
000
000
000
000
000
000
000
000
000
000
000
000
000
000
000
000
000
000
000
000
000
000
000
000
000
000
000
000
000
000
000
000
000
000
000
000
000
000
000
000
000
000
000
000
000
000
000
000
000
000
000
000
000
000
000
000
000
000
000
000
000
000
000
000
000
000
000
000
000
000
000
000
000
000
000
000
000
000
000
000
000
000
000
000
000
000
000
000
000
000
000
000
000
000
000
000
000
000
000
000
000
000
000
000
000
000
000
000
000
000
000
000
000
000
000
000
000
000
000
000
000
000
000
000
000
000
000
000
000
000
000
000
000
000
000
000
000
000
000
02A
000
066
000
000
000
03C
000
000
004
000
000
000
000
3F4
000
3F8
000
000
052
386
000
000
000
000
000
000
02E
3FE
000
000
3FC
000
000
000
398
000
000
000
000
092
000
000
000
000
086
042
000
000
000
0AC
066
000
000
000
000
000
000
000
000
000
04C
000
3F8
000
3DA
000
37E
000
000
014
3C0
000
000
000
000
020
000
000
004
000
000
000
03E
000
000
000
000
000
3EC
000
000
000
000
000
000
000
01E
000
000
36E
000
000
3DA
000
000
000
000
000
000
000
000
000
000
000
000
000
000
000
02C
3C8
000
004
000
05C
000
000
000
000
000
000
000
000
044
000
000
3E6
000
000
000
000
3F2
000
3FC
000
000
000
000
000
39C
000
0A4
000
000
000
000
000
000
052
000
3D2
000
0AA
000
000
002
000
000
000
000
3FE
000
3E0
000
000
000
068
056
000
000
000
000
000
000
000
000
000
000
02C
000
000
0F2
000
000
000
000
000
000
000
000
38A
000
000
00E
000
000
000
01E
05E
000
000
000
000
000
000
000
000
03C
000
000
000
000
000
000
000
022
000
000
000
000
000
032
3EC
000
000
000
000
000
000
060
000
000
378
000
000
000
000
000
000
03A
3EA
000
000
000
000
37A
000
000
000
000
000
000
000
000
014
000
000
000
000
000
000
000
03C
000
000
000
3BE
000
000
000
000
000
000
3EA
000
000
000
000
000
000
3E4
000
000
000
000
000
000
000
000
000
000
3FC
000
000
000
000
000
000
000
000
04C
000
000
38E
000
000
000
000
000
3FE
000
000
000
000
000
000
000
000
000
000
000
000
08A
368
3FA
3FE
000
000
000
000
000
0A0
000
3EA
000
000
000
000
000
000
000
000
000
000
3CA
000
000
000
000
3F2
000
000
000
000
000
000
000
000
000
000
000
000
000
000
3EA
000
000
000
000
000
000
000
000
000
000
000
000
000
000
000
000
000
008
3DE
000
000
000
000
000
3F0
000
3EE
3A6
046
000
02A
000
07E
000
000
384
000
056
000
3E6
000
38C
000
000
000
000
000
000
05A
086
000
000
3DE
3C8
000
000
3A6
000
000
000
08C
000
000
01C
000
000
3FA
04E
000
060
000
000
000
000
000
074
388
36C
000
3FA
000
394
000
000
06A
004
000
370
000
392
3FC
000
00A
000
000
3FC
000
000
3D0
000
002
008
000
3C4
000
000
3EE
000
000
000
3C6
000
000
000
000
000
000
3EE
000
000
000
000
3AA
000
000
000
020
000
000
000
000
000
000
000
000
000
000
000
08A
000
000
000
04E
332
000
000
38E
000
3C6
000
000
000
382
000
3FE
000
082
000
000
000
052
000
3B0
000
000
000
382
026
000
000
3AC
000
000
000
000
000
000
000
3D2
096
0E0
000
006
000
052
3FA
3D8
000
006
000
000
072
000
000
000
09A
088
000
05C
000
000
000
000
000
002
3D6
000
002
06A
000
016
000
000
05E
000
000
000
000
052
052
000
000
000
000
000
000
000
000
000
000
000
000
03E
000
000
3F2
000
000
052
000
000
000
000
000
02E
000
000
014
032
3EC
000
000
084
000
000
000
000
03E
000
000
000
000
000
000
3CA
000
000
000
000
000
000
004
000
000
000
042
000
000
000
000
000
000
006
000
000
000
000
3E0
006
000
000
000
000
000
000
05C
3DC
000
000
000
000
000
042
000
000
000
000
076
0C8
082
02A
000
000
000
000
000
000
000
000
000
000
000
034
3E8
000
3E6
000
000
004
000
000
000
000
000
000
000
000
000
018
000
000
000
000
006
000
000
000
000
000
018
000
068
000
000
000
000
000
000
000
000
000
000
000
000
000
000
000
000
000
000
000
000
000
000
000
000
3C4
000
000
000
000
000
3BA
000
000
000
000
000
000
000
000
000
000
000
000
030
000
000
016
000
000
000
000
000
000
000
000
3E8
000
000
012
000
000
000
000
000
000
000
000
3A2
000
040
000
000
000
000
01A
062
360
3B6
042
010
000
01C
000
00A
000
3E6
022
000
000
000
3FE
000
000
000
000
3F6
000
000
000
000
3F8
394
01A
000
00A
000
000
000
000
000
008
000
3F6
372
000
3E2
3FA
3EE
000
032
3CC
3CE
000
000
028
3F2
000
000
000
000
0A6
000
38E
000
016
000
000
000
000
00E
000
000
000
000
3DE
088
000
32E
052
002
002
000
3E6
000
000
000
03C
072
000
000
000
000
000
000
000
000
000
000
000
000
000
000
3E8
000
360
000
038
000
000
3F8
3AE
000
000
000
000
000
000
000
08A
000
000
000
05A
006
000
3E8
000
000
000
022
000
000
3FC
000
030
000
000
000
000
000
000
028
000
000
006
000
000
012
000
000
000
000
38C
000
000
000
000
3B8
000
01E
050
03E
000
000
000
004
000
08E
000
000
000
000
3A2
3E0
2EC
066
346
3DC
3A8
000
034
000
3F6
046
000
000
000
000
000
000
000
000
042
000
000
000
000
000
024
000
000
000
3D2
000
000
000
3FE
05A
000
000
000
3C6
000
000
000
000
3FA
000
000
000
000
000
000
000
000
000
354
000
000
08E
000
000
018
000
3C4
000
3F4
000
024
000
000
022
002
3E2
000
04C
000
000
000
3C2
000
000
000
000
036
012
000
0CC
080
000
3F4
000
3EA
000
000
0B8
000
000
0AC
000
06C
3E4
000
000
000
000
000
000
000
000
000
000
000
000
096
00C
000
000
000
000
3CE
0BE
000
000
000
3FC
000
000
0AE
000
000
000
000
038
000
000
000
000
000
01E
000
000
000
000
000
000
000
000
000
3B2
044
000
000
078
000
02C
0E8
000
000
000
000
000
3D8
004
000
000
000
000
3EE
000
000
39A
000
000
000
000
000
000
000
000
000
000
364
3C0
3F8
000
000
000
000
000
322
000
000
000
070
000
026
000
000
000
008
3D8
000
000
006
030
000
03A
3FC
000
398
034
000
000
000
000
034
000
000
000
000
000
000
000
000
000
000
000
38C
000
000
000
000
000
000
000
000
000
000
000
000
008
346
048
000
058
000
032
000
000
000
000
000
072
000
002
000
000
000
3B6
000
000
000
000
3C0
378
3EC
000
000
000
000
000
000
000
038
000
000
000
000
002
068
006
000
004
000
000
000
000
000
3D4
3F4
0BE
3AC
000
000
000
000
3C4
004
000
000
000
000
000
000
000
3F8
000
000
3B6
002
000
000
000
000
000
000
000
000
000
000
000
000
000
000
000
000
3BC
000
01A
000
014
000
000
000
000
000
000
000
3EC
06E
000
000
07A
000
000
052
000
022
060
000
000
000
072
032
026
020
000
000
0A0
37E
000
3A4
000
000
000
000
000
000
000
000
3F8
3B8
000
000
000
3BC
000
2EA
000
000
00A
000
07C
000
000
000
0AC
010
000
000
000
000
3F6
092
000
000
034
00C
000
07E
000
000
000
008
000
006
000
000
052
000
000
060
004
000
000
066
000
000
000
000
000
000
08C
000
000
000
000
000
000
000
000
3BE
000
000
000
000
002
3D6
000
000
080
000
000
2E2
000
000
000
000
000
000
000
068
000
000
000
39C
0D8
000
000
000
010
0A0
000
03A
000
000
000
024
000
040
000
000
000
06C
000
03E
000
00A
000
000
000
0DA
3B4
054
000
000
000
000
084
0B6
000
000
000
000
000
000
000
382
372
3D8
000
000
000
348
000
000
000
000
000
000
000
000
000
000
3F0
000
000
000
3BE
040
000
002
000
3F4
038
000
006
000
000
000
000
000
380
000
000
000
000
000
000
000
000
000
3E4
000
392
000
000
3FA
036
000
0B2
0B6
000
000
074
04A
09E
002
000
000
000
000
004
000
3FC
000
000
3FE
000
000
008
000
39E
000
000
000
000
000
000
0A8
03E
000
000
000
000
000
3A4
000
006
3DE
000
060
000
02A
000
000
000
3FA
000
000
000
006
000
000
042
398
000
000
044
000
000
000
04A
3EE
000
0B6
000
3EE
000
000
362
000
092
000
3C0
3EC
022
00A
000
000
000
3FA
000
000
000
000
000
3C4
000
3F8
000
000
018
000
000
000
000
000
000
000
000
000
00A
000
000
000
000
000
000
000
000
000
040
00A
000
000
000
0FE
04C
000
000
000
002
000
000
0DA
000
000
00A
000
000
000
000
000
000
000
000
070
026
000
000
000
000
000
000
000
000
3DE
000
000
090
002
000
000
000
03E
000
000
000
000
000
00C
000
000
3CE
000
000
000
000
3DC
000
02E
012
000
000
000
000
000
000
000
022
000
000
000
000
000
000
000
000
000
000
000
000
000
000
000
000
3D0
000
000
000
000
000
000
000
000
000
032
000
042
000
0A6
000
000
000
000
000
000
000
000
000
3EC
000
056
000
000
000
000
000
000
000
000
000
000
000
000
000
000
000
000
000
000
000
032
000
000
000
000
000
000
000
000
000
000
06A
000
000
000
000
000
070
000
000
000
000
000
062
012
000
002
376
000
000
000
000
000
000
000
000
000
000
064
000
000
000
000
000
028
000
000
000
000
000
000
3FC
006
000
000
000
000
000
000
000
000
050
000
000
000
000
048
000
000
000
000
000
000
000
000
000
04A
3EA
00A
04A
01E
000
3E4
000
3C2
000
000
000
000
000
06C
000
000
000
00A
000
000
000
000
000
000
000
000
000
000
3FC
000
000
000
000
000
000
030
000
002
000
34A
000
000
000
016
000
000
000
000
000
00A
000
3F6
000
000
002
3FC
000
000
000
000
000
000
000
000
000
000
000
000
38E
000
000
000
000
000
000
000
000
000
362
000
000
040
000
034
000
000
000
06A
000
000
000
000
000
000
000
000
000
3F0
002
000
000
000
3DE
000
000
05A
000
000
000
000
000
000
000
000
000
046
000
3FE
05E
3CA
000
000
000
000
000
000
000
38E
000
000
024
000
000
000
054
000
000
000
3E4
000
000
000
000
04C
000
000
000
000
000
3F0
000
000
000
000
000
000
000
000
044
000
000
000
000
000
004
3FC
000
086
018
000
000
026
000
000
000
3A8
042
0A2
000
000
000
000
00A
06E
08A
000
000
000
042
000
000
000
000
000
01A
000
3F4
3FC
000
3E4
000
3F6
000
000
000
3A6
028
016
000
000
34A
000
3E6
3B4
000
000
3B4
002
000
002
000
002
000
000
000
000
044
000
000
006
348
000
042
000
000
000
000
000
00E
2F0
000
05E
000
000
068
000
0C2
3FE
000
000
000
000
3C0
000
000
3FC
000
3C4
0C4
000
000
000
3BC
016
3F2
00E
000
000
02C
000
000
000
000
000
000
000
000
2F6
002
000
000
024
000
000
068
000
32E
002
000
006
000
000
000
3F6
036
000
000
3F2
04E
000
000
000
000
3F8
000
000
3EC
000
000
000
000
000
034
000
0A4
054
000
3E8
012
000
000
03E
000
3F4
000
3C4
000
000
000
080
04E
000
000
002
000
000
000
000
3FA
08A
028
000
004
000
000
000
3E8
3F8
000
000
000
000
088
000
006
00C
000
36E
000
000
000
010
000
016
000
000
000
000
000
000
000
000
000
000
000
000
000
000
000
000
000
000
000
000
000
000
000
000
000
3D6
016
000
000
006
000
000
000
000
000
000
3FE
000
000
000
3EE
000
000
000
000
000
000
000
000
000
000
000
000
000
000
000
08C
000
3FE
048
002
05A
000
000
000
086
000
000
000
06C
3A6
000
000
000
000
000
000
000
000
000
000
02E
000
000
000
000
000
000
000
008
000
3E8
000
000
048
3F4
026
052
000
000
000
000
000
000
000
000
000
000
000
000
000
000
000
01C
000
000
000
000
000
000
000
000
000
000
000
000
000
3EA
000
000
000
000
000
000
046
000
000
000
000
000
000
000
000
000
000
3FE
000
000
000
000
000
000
000
000
000
000
000
000
000
000
000
000
000
032
000
000
000
000
3FE
000
000
000
000
000
000
352
000
000
000
030
034
000
000
000
000
000
000
000
000
000
000
000
000
3EC
000
3FE
000
000
3F0
000
000
000
000
000
000
000
000
000
000
000
0A2
000
39A
000
000
000
030
000
01A
000
000
000
3FE
000
000
000
030
000
000
000
000
000
000
000
000
000
000
000
000
000
3BE
000
000
38C
000
000
000
000
00E
000
004
000
000
000
060
000
000
000
040
0A4
000
000
01E
000
000
000
000
000
000
000
000
000
000
000
000
000
030
000
000
042
000
000
000
000
002
000
000
000
000
000
3EE
000
000
000
000
000
000
0A8
000
00E
000
000
000
000
01E
000
000
000
000
000
000
000
000
000
000
000
000
052
3FA
000
000
000
000
000
056
000
000
000
000
00C
000
000
000
000
000
000
000
000
0AA
000
002
000
062
000
000
000
000
000
000
000
000
012
000
000
352
000
000
3D4
000
074
000
000
000
05C
000
000
000
078
000
000
000
000
000
000
00C
000
000
05A
000
000
000
000
000
000
000
000
000
000
000
000
000
000
000
378
000
000
000
000
000
000
000
000
000
000
000
036
000
000
000
042
000
000
000
000
000
000
000
000
000
000
000
000
000
000
000
000
000
000
000
000
000
000
000
000
000
000
000
000
000
000
000
000
000
000
000
000
000
000
000
000
000
000
000
000
000
000
000
000
000
000
000
000
000
000
000
000
000
000
000
000
000
000
000
000
000
000
000
000
000
000
000
000
000
000
000
000
000
000
000
000
000
000
000
000
000
000
000
000
000
000
000
000
000
000
000
000
000
000
000
000
000
000
000
000
000
000
000
000
000
000
000
000
000
000
000
000
000
000
000
000
000
000
000
000
000
000
000
000
000
000
000
000
000
000
000
000
000
000
000
000
000
000
000
000
000
000
000
000
000
000
000
000
000
000
000
000
000
000
000
000
000
000
000
000
000
000
000
000
000
000
000
000
000
000
000
000
000
000
000
000
000
000
000
000
000
000
000
000
000
000
000
000
000
000
000
082
000
000
000
000
000
3C6
000
002
000
02E
000
000
000
000
000
028
006
000
000
000
000
000
000
000
3BA
000
000
000
000
000
000
000
000
000
000
000
000
000
000
000
000
000
000
000
000
000
000
000
000
000
000
000
000
000
3F4
000
000
012
000
000
000
000
000
000
01C
000
000
000
000
000
000
000
000
000
000
000
000
000
000
000
000
000
3F0
000
000
000
000
000
000
000
000
000
000
000
000
000
000
000
000
000
000
000
000
000
000
000
000
000
000
000
000
000
000
000
02C
000
000
000
000
000
000
000
000
000
000
000
000
000
000
000
000
000
000
000
000
3AA
000
3A2
000
020
000
022
000
000
000
000
000
000
000
000
066
000
000
000
000
000
000
002
000
000
000
000
000
000
000
02C
000
000
000
000
3D8
000
000
000
000
000
000
000
000
000
000
000
000
000
000
000
000
3A6
000
000
000
000
000
000
000
000
000
000
000
000
000
000
044
000
3EE
000
000
000
000
000
3FA
000
046
000
000
000
01C
000
000
072
000
000
000
39E
000
000
000
000
000
000
000
000
000
000
000
000
000
010
04C
070
000
000
000
000
000
000
342
3FA
000
000
000
000
3E0
000
000
000
000
000
008
000
000
000
000
000
05E
000
064
3B0
000
058
000
002
000
000
000
000
000
000
000
000
000
000
000
000
000
000
000
000
000
000
000
3FE
000
000
000
000
000
000
000
000
000
000
3B0
032
000
028
000
078
000
000
04E
000
000
000
000
3DC
08E
000
000
000
000
000
090
000
000
000
000
000
000
000
000
000
000
000
000
3AE
000
000
000
000
02A
000
004
000
000
000
000
000
000
000
000
000
000
000
000
04C
000
000
000
000
000
000
000
000
000
000
026
000
000
000
002
000
000
000
000
000
3A6
0B0
000
000
000
000
000
0AC
000
000
398
000
000
000
000
000
000
000
000
000
000
000
000
000
06C
3C0
000
000
000
000
000
000
000
000
000
006
000
000
000
38E
004
3F4
006
000
000
000
000
000
000
000
000
000
000
000
000
00A
000
000
000
000
000
000
000
000
066
000
000
000
000
000
000
000
000
000
000
000
038
000
000
000
000
000
000
000
000
000
000
000
000
000
000
000
000
000
000
000
000
000
000
000
000
000
000
000
000
000
000
024
000
034
000
000
396
000
000
000
000
000
000
3E0
000
000
000
000
050
000
000
024
000
000
000
000
000
000
000
000
000
05A
000
000
000
000
000
000
000
000
3B6
000
000
000
000
000
000
000
000
000
000
000
000
000
000
000
000
000
000
000
000
000
384
0A2
000
000
000
06C
000
000
000
032
000
3A0
000
000
000
000
000
000
000
3F4
000
350
000
0A4
000
000
000
000
000
000
000
000
000
3F0
000
000
000
000
000
000
000
000
3EE
000
000
04C
000
000
000
000
3EE
03E
394
3F4
000
066
3F4
000
0D6
3FE
000
000
000
000
02C
000
000
04A
0BE
008
0B2
06E
000
000
000
000
000
000
01C
000
000
3DE
000
000
000
000
000
384
000
000
000
01A
000
014
000
000
000
074
000
000
07E
000
000
000
000
39A
000
000
000
000
000
000
000
3F6
000
016
000
000
3A2
3F2
02A
000
070
000
000
000
000
000
004
000
000
000
04C
00A
000
000
01C
000
000
002
000
000
000
3E8
000
000
000
3EC
000
000
000
000
000
000
000
052
000
000
000
000
000
000
000
000
040
000
000
000
000
000
000
092
000
000
000
000
000
000
000
386
00A
012
000
000
000
000
000
036
000
000
000
000
000
000
000
36A
000
000
000
000
000
000
000
000
000
000
012
000
064
000
000
3A0
000
000
000
012
028
3B2
08E
000
00A
022
000
000
380
000
000
000
000
000
000
000
000
370
000
000
000
000
3F6
000
000
000
000
000
000
000
000
000
000
000
000
000
000
000
0A6
06A
000
000
000
000
000
000
000
000
000
000
000
032
000
000
3E4
000
000
000
000
000
000
000
3FC
000
000
000
000
000
000
066
05C
3F2
000
004
01E
000
000
000
06A
000
022
000
000
052
000
000
000
000
000
000
000
3EE
000
004
000
000
000
000
000
000
000
000
000
3B2
010
3E6
000
000
000
000
000
000
3EE
000
000
000
000
3FE
022
000
000
000
000
3DC
000
000
000
000
000
000
000
03E
39A
3AA
000
314
000
000
3D0
000
01E
000
05C
000
07C
000
000
000
000
000
000
000
000
000
000
000
000
000
000
000
000
2A6
3FC
000
000
38C
000
000
000
000
000
000
038
000
000
3F4
000
00C
000
000
000
000
000
000
000
052
000
000
000
000
062
000
000
000
000
000
030
000
002
000
000
000
000
000
3A4
000
000
000
000
000
000
000
01E
000
000
000
000
390
000
3F4
044
000
000
000
020
010
3FE
000
000
000
000
036
000
000
000
000
00E
000
000
000
000
000
000
000
000
000
000
3A2
000
000
000
000
000
000
000
000
3EE
000
000
000
000
000
000
3FE
000
00C
000
000
000
000
000
000
000
000
000
000
000
000
000
3A2
000
000
000
000
000
000
000
014
000
000
000
000
000
000
000
000
000
36A
3E6
000
000
000
000
092
000
000
000
000
000
000
000
000
000
000
000
000
000
000
000
000
000
000
000
000
000
000
000
000
000
000
000
012
000
032
000
000
000
000
000
000
000
000
000
000
000
000
000
3D6
000
000
000
000
000
000
012
000
000
000
000
064
000
04A
000
382
000
000
000
000
000
000
000
3FC
000
000
000
000
000
000
000
3DE
000
000
000
000
02A
000
000
000
000
000
000
000
000
018
068
000
000
000
000
000
000
000
000
000
000
000
000
000
000
000
000
000
000
000
000
000
000
000
000
000
000
000
000
000
000
000
02E
000
000
000
000
000
000
000
000
000
000
000
000
000
000
000
000
000
000
000
000
000
000
000
000
000
000
000
000
000
000
000
000
000
000
000
000
000
000
000
3D2
000
000
000
000
000
000
000
000
000
000
000
076
000
010
000
000
000
3E2
000
000
000
000
060
000
000
000
000
000
000
05E
000
000
000
00C
000
000
000
3BA
000
000
000
3FE
000
000
000
000
000
000
000
000
000
000
000
000
000
3F6
040
000
000
050
000
000
000
000
000
000
000
000
000
000
000
000
000
000
000
000
000
000
000
000
030
000
000
050
000
000
070
000
000
000
000
000
000
000
002
000
3F2
000
000
000
000
000
3EC
000
38A
000
000
000
000
004
000
000
000
000
000
000
000
388
000
000
000
000
000
000
000
000
3F0
000
000
000
000
000
000
000
004
000
000
3D4
3D2
000
000
000
000
000
000
000
000
000
000
000
000
000
3D8
000
000
000
000
000
000
000
090
000
00A
000
3F6
08A
3F0
074
3CE
000
0C8
3BE
000
000
000
3FE
000
000
000
000
000
000
3F0
000
000
000
000
3FE
07C
000
008
000
000
000
37A
000
000
000
000
000
000
3EE
000
000
000
004
000
004
000
000
000
000
370
000
000
01E
05C
3E8
000
000
3EE
000
06C
000
3C6
000
3EC
000
000
074
39E
022
3D0
000
372
000
000
000
000
000
372
000
000
04E
000
000
000
022
000
000
000
07E
0B8
000
000
000
316
000
000
0E2
000
000
000
3C0
000
000
05C
000
3CA
000
000
000
000
000
000
000
000
000
034
000
02E
000
000
000
000
04A
000
088
000
000
000
3FE
000
000
38E
008
000
000
000
000
01C
000
000
000
000
022
3E6
000
000
000
000
000
000
000
05C
00C
0A4
000
38C
000
000
000
2EE
000
0A8
000
000
000
078
000
000
000
000
000
3F2
000
002
346
3D4
000
022
03E
000
07E
000
000
078
3EE
000
000
000
000
3E4
068
000
3D8
000
000
000
340
000
000
3FE
000
000
000
0BA
000
000
000
000
000
000
000
000
000
04A
00A
3D6
000
01E
084
000
000
3B2
000
02E
000
000
000
02C
000
3CE
000
000
000
002
020
012
000
0CA
00C
000
000
000
000
000
000
000
000
000
3FE
000
000
000
000
380
000
000
000
000
000
000
000
040
09E
000
000
000
000
36C
384
000
0D8
000
000
000
000
000
000
000
000
000
000
060
094
010
000
33E
000
000
396
000
3FC
000
000
000
000
000
000
356
000
000
072
002
01E
000
000
000
000
000
094
000
000
000
000
000
3BC
000
000
32C
3CA
000
000
3EE
000
000
000
3EC
000
000
35E
000
000
000
000
38E
048
020
000
002
032
000
002
000
026
05E
012
06A
000
000
000
000
000
000
000
000
07E
000
038
016
000
000
000
000
000
000
000
000
000
000
00A
000
3EA
000
05C
000
000
000
000
000
000
000
000
000
000
088
01A
000
0F2
010
000
000
000
000
000
3D4
000
000
096
04E
03A
000
000
000
000
000
000
38C
3E4
000
042
000
000
000
000
3EE
3FC
37C
000
000
000
000
000
000
000
000
000
006
000
000
000
00A
396
012
39C
024
000
076
000
000
3AA
000
02A
04E
3EE
000
3EC
000
000
0E6
38E
396
000
000
364
000
000
000
000
000
000
000
000
000
000
000
028
000
000
000
000
000
000
000
000
000
01C
000
000
000
000
02C
000
000
000
3FE
010
000
05A
0B2
000
000
000
000
000
000
000
000
3FE
39C
030
062
000
000
000
000
000
000
000
000
000
014
000
000
058
000
000
000
000
370
000
3E8
002
000
000
38C
086
070
000
000
000
000
000
3BA
000
000
000
000
000
000
000
000
002
000
004
000
000
000
000
000
000
000
048
000
000
000
06E
000
000
000
000
00C
000
000
000
05E
3DE
000
016
342
000
000
000
000
3BC
000
000
000
000
000
000
000
000
000
000
000
000
000
3CC
3F0
000
002
000
000
000
000
3FC
3D6
004
04E
000
000
000
000
000
000
000
000
000
000
000
000
022
000
006
000
000
000
000
000
000
000
3B8
000
000
000
000
000
000
000
00C
00E
000
000
000
026
000
000
000
000
000
372
000
000
000
000
000
000
000
000
000
000
000
3CA
000
000
3FE
000
36C
000
000
000
000
000
000
000
05E
000
000
046
000
000
000
3B2
000
000
000
000
000
3DC
000
000
030
018
000
000
000
000
000
000
000
094
000
000
008
000
000
000
06E
000
000
000
000
000
000
000
000
000
000
000
000
000
000
000
09C
3B4
000
02E
000
086
06C
000
000
3F6
050
000
000
000
002
3C2
39E
000
000
000
000
000
000
000
000
000
3FC
000
000
000
000
000
000
000
000
000
000
000
000
000
000
000
000
02A
000
000
000
3F8
000
000
000
000
000
000
000
000
000
000
000
000
3BE
000
000
000
000
000
000
000
000
000
000
028
3BC
000
000
000
000
000
014
000
3BE
000
000
000
000
000
024
000
000
000
000
050
000
000
000
000
3E8
000
000
000
000
06A
306
000
000
122
004
000
000
042
010
000
000
000
000
000
000
000
000
000
000
000
000
058
3F8
000
386
000
000
000
000
000
000
000
000
3D0
000
000
000
000
000
000
000
000
000
000
366
000
000
000
000
002
000
000
000
000
000
000
000
000
000
010
000
000
000
000
000
000
000
000
000
09E
000
000
000
060
038
0C4
000
000
000
000
000
000
002
000
000
03E
000
000
000
000
000
000
000
000
3D4
000
000
000
000
000
3FE
004
000
3F8
000
07C
000
000
000
000
086
000
3B2
000
000
004
000
00C
000
3F8
0B0
00C
000
000
000
0B4
006
000
000
000
06C
000
34A
378
000
000
000
000
038
000
000
000
000
000
000
028
3C6
000
000
39E
000
000
044
000
02C
000
000
000
3D2
000
3A2
000
000
322
010
000
3D2
000
3E4
064
000
3A4
000
000
000
000
000
000
000
000
000
000
000
000
000
042
000
000
036
000
38E
064
000
000
000
000
000
000
052
360
000
092
000
39A
3C8
000
000
000
000
000
000
394
002
000
082
394
0A6
076
000
000
000
084
3FA
000
0B0
006
3FE
000
000
000
000
000
000
000
064
0C2
000
04A
000
000
000
000
000
000
000
000
000
000
000
066
000
09A
000
000
000
000
000
0E0
000
000
000
000
000
018
002
000
000
000
000
37A
3BC
000
000
000
000
000
000
000
06E
000
3F0
3CC
000
008
000
000
000
000
00A
39E
058
06E
000
000
000
000
34C
000
000
000
000
3CA
000
000
000
000
000
016
000
000
000
000
064
3FE
000
3E0
000
3CE
3F2
076
000
000
00A
000
084
000
01C
000
000
000
000
000
048
000
000
000
02A
000
392
37C
000
000
000
046
000
006
3FC
088
000
000
000
066
000
000
076
000
070
000
3B8
000
000
000
090
000
000
000
006
000
000
000
000
000
066
000
000
000
000
000
0BE
000
000
09A
040
000
000
000
000
002
000
000
000
000
000
000
000
002
016
000
000
000
000
006
000
000
000
000
3B8
000
3DC
000
058
000
000
3AE
000
034
000
006
000
000
050
000
000
000
3FC
000
000
000
000
000
006
364
000
008
000
0CA
000
000
000
000
000
000
000
000
000
000
38A
03E
000
000
004
000
038
000
000
056
000
000
016
37E
3E6
03E
000
056
000
000
000
000
000
000
0A6
000
004
000
02C
06A
02A
328
000
342
10E
000
00C
000
000
058
000
002
000
3B6
000
000
000
000
3EC
000
000
000
3FC
000
000
3F2
000
000
000
056
000
000
08E
006
048
000
000
000
000
000
000
000
3F2
000
000
378
39C
000
000
04A
000
000
000
010
000
000
000
39A
000
000
024
040
000
000
000
3F4
32C
000
032
000
000
000
02C
396
000
3FE
000
000
3F0
000
000
002
000
000
000
000
000
3D6
000
000
000
000
06E
01A
000
000
000
000
000
000
000
000
000
000
000
000
000
000
000
000
000
000
000
000
000
000
000
000
000
000
000
000
000
000
000
000
000
000
000
000
000
000
000
000
000
000
000
000
000
000
000
000
000
000
022
000
000
000
000
000
000
000
000
000
000
000
000
000
000
000
000
000
000
000
000
000
000
000
000
000
000
000
000
000
000
000
000
000
000
000
000
000
000
000
000
00A
000
000
000
000
000
000
000
000
000
000
000
006
000
000
000
000
000
000
000
000
000
000
000
000
000
000
000
000
000
038
000
000
000
000
000
000
000
000
000
356
000
000
000
000
000
000
04A
042
000
000
000
000
000
000
000
0B2
000
000
000
000
000
000
000
000
000
000
000
000
000
000
000
000
000
000
000
000
000
000
000
000
000
000
000
000
000
000
000
000
000
000
000
000
000
000
000
000
000
000
000
000
000
000
000
000
000
000
000
000
000
000
000
000
000
000
3F6
000
000
000
000
000
000
000
000
000
000
000
000
000
01A
000
000
08C
000
000
000
000
3FE
000
008
000
000
000
000
000
000
000
000
000
000
07C
000
000
000
0B2
000
000
000
000
000
000
000
000
000
000
032
000
000
000
000
000
000
000
02A
000
3E4
000
08C
000
000
000
340
000
000
000
000
000
000
000
000
000
05A
000
000
000
000
3BE
000
000
008
000
000
2FE
000
000
000
000
000
000
000
000
000
000
000
000
000
3CE
000
000
000
380
07C
000
000
000
000
000
3FC
000
000
36E
000
000
000
000
000
000
000
000
000
000
000
000
08A
000
000
000
000
000
000
000
000
046
000
012
000
398
000
000
000
05C
000
3D2
000
000
3E6
000
000
000
000
3FC
000
000
000
000
03E
000
000
042
072
000
000
000
000
000
000
000
000
000
000
000
35E
000
024
0A0
000
000
000
000
000
000
000
000
000
000
000
00A
3D6
000
000
000
000
000
000
000
000
000
000
000
000
000
000
39E
000
000
000
000
000
000
000
05E
000
000
000
000
000
000
07C
3A8
000
000
000
026
000
000
3FA
000
000
000
000
016
000
000
3FC
3E2
056
00C
000
000
000
000
000
000
000
000
000
0B4
000
000
350
000
000
0B4
3FA
3F8
000
000
000
008
368
000
000
000
000
000
000
000
000
00A
000
000
000
000
000
000
000
006
000
000
0A2
020
04C
000
000
000
000
360
000
000
000
000
000
000
000
000
000
000
064
000
000
000
39C
000
008
0C0
000
3FE
000
000
086
398
000
000
000
000
000
000
0A6
000
000
000
000
000
070
000
000
000
000
364
000
000
000
000
000
000
000
000
000
000
096
000
000
3B8
000
000
000
000
000
106
000
000
000
000
000
000
000
000
06A
000
000
000
000
000
000
000
000
000
000
000
000
000
000
000
000
000
000
000
000
000
000
012
000
000
0AC
000
3B8
000
000
036
000
000
000
000
000
05A
000
000
000
000
010
000
066
000
000
3C0
000
000
000
000
000
000
000
000
000
000
3CA
000
076
34C
000
000
05E
016
040
09A
000
000
05C
3A2
000
07C
000
000
000
000
000
00A
000
000
000
000
000
3C8
000
000
000
3F2
000
006
000
000
3DA
0DE
000
000
3FC
000
000
000
000
000
000
000
3F2
00E
000
000
000
05C
000
000
000
000
000
000
000
000
000
000
368
000
000
000
000
000
000
004
000
3EE
000
000
004
026
000
000
000
000
3B0
000
01A
3DA
07C
000
000
000
000
000
32E
3DE
000
2F8
000
000
000
040
000
000
000
000
000
000
000
000
000
000
05A
000
048
000
000
09A
046
000
000
000
000
3EC
006
000
000
3FC
014
000
000
000
000
000
0AC
000
000
000
3FE
000
000
000
000
062
01E
000
000
000
000
000
000
000
04E
000
36C
000
000
01C
000
398
3DC
3DA
000
008
3E6
000
000
000
0A0
000
016
000
022
000
06C
390
00C
000
000
3F0
000
3E2
000
000
3DA
000
000
000
000
052
000
000
000
000
000
000
006
3D2
000
000
00A
000
000
000
3DE
000
000
000
000
3FC
000
032
000
080
000
000
000
000
000
000
000
03E
000
002
34C
000
000
000
000
3F8
000
000
000
000
000
000
000
000
000
000
000
000
000
000
000
000
000
000
000
000
062
000
000
000
000
000
000
0FE
000
006
000
000
3C4
000
000
000
000
000
000
000
000
082
000
000
000
000
000
000
000
3AE
000
000
000
000
000
000
000
000
000
000
38C
03E
000
01A
3FC
000
000
000
000
000
016
000
000
000
000
000
000
000
000
000
000
000
000
008
000
004
000
000
000
000
018
018
000
000
000
000
000
000
000
000
000
000
000
3EC
000
000
3A2
000
000
000
000
000
000
0AC
000
364
010
004
3EC
000
000
0DE
000
000
000
000
000
35C
000
000
000
000
002
000
000
000
000
000
000
000
000
000
000
000
000
000
000
000
000
000
000
000
000
000
006
000
052
000
000
000
000
000
000
00A
000
000
000
032
012
000
000
000
3E4
000
000
000
3F2
026
000
070
000
00E
03E
000
000
076
044
000
000
002
008
3FC
000
396
000
000
000
000
000
000
3F6
000
000
000
000
000
000
000
000
000
000
000
000
000
000
302
006
000
000
010
354
000
000
06A
040
004
000
000
05E
3E2
368
000
000
000
000
000
01A
000
078
000
000
3FA
000
396
000
000
000
000
3FE
000
000
00C
04C
000
000
000
000
000
000
000
000
000
004
000
000
0B2
000
000
000
000
000
000
3DC
000
334
36E
000
010
000
000
000
000
3FC
000
000
3FE
000
066
3E6
132
000
044
000
000
000
000
042
3FE
000
000
000
000
3CC
000
000
000
000
000
3EC
000
000
000
000
3C4
000
000
3E2
000
000
358
000
00A
3BE
00C
3E8
008
000
000
000
000
000
000
000
3FE
000
000
000
05E
000
000
3D4
39C
0F8
000
3FA
000
000
000
000
000
000
000
000
000
000
000
000
000
000
000
000
000
000
000
0AA
000
000
000
000
000
002
000
064
000
000
3E0
000
3E8
060
000
000
000
000
000
000
000
000
000
000
000
052
004
3FA
000
000
000
000
000
000
000
000
000
000
000
000
000
01C
000
000
020
3C2
000
000
000
000
000
38A
000
3BE
000
000
000
338
000
042
000
02A
000
05C
000
390
346
000
000
000
056
338
372
000
070
000
3EE
000
07E
000
000
000
000
000
000
000
000
000
010
000
000
3F4
000
000
000
000
000
024
000
000
000
000
000
000
000
000
02C
000
000
000
000
3FE
000
000
38C
000
000
000
000
000
036
000
090
000
028
000
000
000
3C6
000
000
000
002
06A
000
000
022
000
000
000
3A2
000
0A2
000
000
000
000
000
000
020
000
000
000
000
00E
000
3D6
396
06A
3DA
000
000
000
08C
000
344
000
000
000
000
000
002
3FE
000
000
000
000
000
3FA
06A
042
000
000
000
000
000
000
000
000
004
000
000
000
000
09E
000
000
000
000
000
000
000
000
000
000
000
000
000
000
000
000
000
386
3EA
000
000
000
000
000
000
000
000
000
000
000
000
078
000
000
086
000
000
020
000
054
000
000
000
000
000
000
000
090
000
000
000
3FA
000
000
000
000
000
000
000
000
04C
000
000
3D2
000
3CA
000
000
000
000
000
000
000
000
000
000
000
3C8
000
3E2
000
000
000
000
000
000
000
3D8
000
000
000
000
000
000
000
000
000
000
000
000
338
000
000
014
000
000
000
000
000
000
000
000
000
000
000
000
000
3FE
000
000
3FE
000
000
000
000
022
000
000
000
000
000
000
000
000
000
000
000
000
000
000
000
000
000
000
000
000
000
000
000
000
000
02A
000
074
000
000
000
000
000
000
000
000
000
000
000
000
000
000
000
000
000
00C
000
054
000
000
000
002
000
000
000
000
000
000
000
000
000
000
002
000
000
000
3A0
000
000
000
01C
000
000
000
000
000
000
000
000
046
000
000
014
000
36C
000
000
000
000
000
000
000
000
000
000
3AE
000
000
000
000
000
04A
000
000
39C
000
000
000
08A
000
000
000
000
000
000
000
000
000
000
000
000
000
000
000
000
3FC
02C
000
000
000
000
000
056
000
000
000
000
03E
006
000
000
000
004
000
3B2
000
000
000
000
000
000
020
000
000
000
000
000
000
010
020
000
000
000
000
000
000
000
060
000
000
000
036
000
000
000
000
000
000
000
000
000
000
000
000
04C
000
000
000
000
354
000
000
000
000
000
3F8
000
3E6
3A8
000
000
000
000
000
000
000
000
02A
000
3F4
060
000
000
000
000
000
000
000
000
000
000
3D2
000
000
000
000
000
39E
000
000
000
074
000
07C
000
0F4
000
000
000
004
000
000
000
000
000
3F4
000
000
000
000
000
000
000
000
000
000
000
000
000
000
000
000
002
000
000
000
000
000
000
000
000
000
000
000
000
000
000
000
000
000
3FE
016
000
03C
000
000
000
000
000
000
000
000
000
000
000
000
000
3D4
000
000
056
054
000
000
09E
3E0
000
000
390
000
000
000
000
000
000
000
050
09A
000
000
000
000
3F6
000
000
000
000
3D6
000
3A2
000
000
000
3FA
000
000
000
000
002
000
000
000
000
01E
000
000
000
000
022
000
3C8
000
000
000
020
084
000
000
01E
000
020
000
000
000
000
39E
000
000
000
000
000
000
000
000
3FE
000
000
000
3F8
000
000
000
000
000
000
000
000
000
002
000
000
000
000
000
000
000
000
000
398
000
000
000
000
000
000
000
000
3FC
000
000
000
000
00E
000
000
000
000
000
000
000
000
000
000
000
000
000
000
000
000
052
010
000
052
000
000
000
000
3FC
000
000
000
100
000
000
000
000
000
000
000
000
3EA
000
000
000
000
000
000
000
000
3A8
048
000
000
000
000
000
002
006
000
000
000
000
000
000
03A
000
000
000
000
000
000
000
000
000
03E
00A
000
000
000
000
3CE
09C
000
000
000
000
000
000
000
00A
3B4
354
044
01A
000
04C
01E
000
3A6
000
000
3F0
000
060
000
000
3E6
000
000
05E
020
000
000
3A2
088
000
00A
000
000
000
000
000
000
000
000
000
000
000
000
010
000
000
000
000
000
000
000
000
000
000
000
000
000
000
000
000
004
000
000
000
000
076
3CA
008
000
000
008
3FA
022
3F4
000
3FC
000
000
000
000
000
3F6
000
0B0
000
3FE
000
000
000
3F6
000
000
3A2
000
000
000
000
000
000
000
05C
000
000
000
3AC
000
000
000
000
000
000
068
3F2
02E
3D8
000
000
080
000
000
000
024
000
000
000
0B8
06E
03E
000
000
000
052
000
000
000
000
384
000
000
000
02C
3CC
000
056
046
028
000
000
000
000
000
008
000
014
000
000
000
054
000
3C2
000
000
35A
000
000
000
000
000
000
3FC
000
018
000
000
000
000
3EE
000
044
000
000
000
000
000
05E
04A
000
078
000
000
000
000
006
3E6
000
048
020
08A
000
000
37C
000
000
000
3FE
000
000
000
3CA
076
000
000
036
000
074
3E4
040
3FA
000
000
000
000
344
000
000
000
000
3F4
3C8
004
318
000
000
3EA
000
000
0B2
000
000
014
000
000
000
000
000
000
072
000
000
074
000
05E
002
336
000
000
000
3FE
364
000
000
366
36A
000
076
000
050
000
000
000
000
36E
3A4
000
098
2C4
000
05C
38A
000
3DA
3FE
000
000
000
000
000
000
000
000
018
008
000
030
000
3F6
000
000
000
000
000
3EE
000
3EE
000
000
000
098
07A
000
000
0E0
000
3D2
000
000
000
000
000
000
000
000
000
000
000
060
000
000
000
000
036
3EC
068
000
074
000
000
000
000
000
06C
3C6
000
076
000
000
000
3F2
000
348
000
000
06E
000
020
000
000
394
3CC
07E
000
000
08E
000
000
000
000
000
000
06A
35A
000
000
000
000
000
000
000
000
3E4
000
000
000
000
000
3A4
000
000
000
000
000
000
000
3FC
3B4
3E8
000
3FA
072
000
000
000
060
000
02A
068
000
000
000
000
000
000
064
000
000
000
3AA
04A
000
000
000
000
000
000
000
000
378
000
000
02C
000
000
3F2
000
000
000
000
3D0
000
000
000
000
07A
358
000
000
000
000
000
000
000
066
01C
000
3C2
00A
000
000
07E
000
000
37A
060
000
016
000
07A
000
000
346
02C
000
034
000
000
000
3B6
3A0
058
044
000
082
3F6
000
000
000
000
000
3AA
000
000
000
000
3EA
000
000
000
000
3FE
000
38E
000
000
000
000
000
000
000
000
000
000
000
000
000
000
000
04E
000
000
086
000
3F6
000
000
000
000
000
000
000
000
000
000
074
01C
000
000
064
312
000
018
000
038
000
09E
000
3BA
000
3EE
000
000
000
000
000
06A
000
082
002
014
3B8
000
05E
000
068
000
000
000
386
06C
000
000
3CE
000
000
000
000
000
03A
000
004
000
000
000
000
08E
3C2
000
000
000
000
3DA
000
000
004
000
06C
000
028
382
000
000
000
000
380
000
03E
000
072
010
000
000
000
006
00C
004
3CE
000
000
000
000
000
000
096
000
09E
000
000
038
000
000
056
0A0
046
000
000
390
000
000
000
070
042
000
000
000
000
000
000
3B4
000
000
000
000
030
000
000
3EA
000
3BE
000
000
000
000
000
000
396
000
000
352
000
000
000
000
000
000
000
000
08A
000
000
040
000
0D8
000
048
000
000
000
000
000
056
000
000
000
04E
000
000
000
000
000
000
02A
000
000
3B4
000
000
000
000
000
000
000
000
000
000
04E
000
000
000
000
000
000
016
000
000
048
046
000
000
000
000
000
000
000
000
000
000
000
000
000
000
000
000
000
000
3F4
3FE
088
000
000
00E
000
000
000
000
3F2
000
000
000
000
000
000
000
000
000
03C
000
000
000
01E
000
000
000
000
000
000
000
000
000
000
000
000
000
000
000
000
000
000
000
000
000
000
000
000
000
000
07E
000
000
000
000
000
000
000
000
000
000
000
000
000
000
000
000
000
000
000
000
000
000
000
000
000
000
000
000
000
000
000
000
000
000
000
026
000
000
000
000
000
000
000
000
000
014
000
000
000
000
000
000
000
000
000
000
000
000
000
000
000
000
000
000
000
000
000
000
000
000
000
000
000
000
000
000
000
000
000
000
000
000
000
000
000
000
000
000
000
000
000
000
000
000
000
000
000
000
000
000
000
000
000
000
000
000
000
000
000
000
000
000
000
000
000
000
000
000
000
000
000
000
000
000
000
000
000
000
000
000
000
000
000
000
000
000
000
000
000
000
000
000
000
000
000
000
000
000
000
000
000
000
000
000
000
000
000
000
000
000
000
000
000
01C
000
000
000
000
000
000
000
000
000
000
000
000
000
000
000
000
000
000
000
00C
000
000
000
000
000
084
090
3C4
04A
000
000
000
000
000
000
000
006
000
004
000
000
000
000
072
000
000
000
000
000
000
078
000
000
000
000
000
000
000
000
000
000
000
000
000
000
000
000
000
000
000
000
000
000
000
000
000
000
01E
000
000
000
000
062
000
000
000
000
3D8
000
3FC
3C6
000
000
000
35C
07C
000
000
38A
000
000
000
000
000
000
052
01A
000
000
000
00C
000
000
000
368
000
3EC
000
000
000
000
000
000
000
000
000
000
000
000
000
000
3C2
000
022
026
000
000
000
014
058
000
000
092
000
000
000
06E
086
000
000
000
000
000
06E
000
000
000
000
000
000
000
000
000
000
000
000
000
000
000
000
000
000
3D6
000
000
000
000
000
000
000
3BC
000
000
000
000
000
000
000
3EE
000
000
000
3FE
000
01E
000
3C0
000
024
000
002
000
000
000
022
000
000
000
3BC
000
000
032
000
000
000
000
012
000
000
000
000
000
006
000
000
0FC
000
000
000
3B2
000
000
000
000
000
000
064
012
000
000
000
000
000
000
000
3EC
000
00C
000
000
000
000
000
000
000
000
000
000
000
000
000
000
3EA
000
000
000
000
000
006
000
3DC
000
000
000
000
000
000
000
002
000
000
3D4
000
000
000
08A
000
000
000
000
000
000
3EA
3B8
000
000
000
000
000
3F4
000
000
000
000
000
000
000
000
000
000
0D8
000
000
3CC
000
000
3CC
000
000
000
000
000
000
000
002
000
000
000
000
000
026
000
000
086
000
000
000
000
000
000
000
000
000
000
000
3F4
000
092
000
000
000
000
000
000
000
000
3D4
000
000
000
000
080
000
000
000
000
000
000
3E6
000
000
000
062
000
000
000
000
3C8
000
000
000
000
000
00A
000
000
3F8
000
000
3B6
3AA
000
008
03C
000
370
3D6
000
000
07E
000
0D6
000
3F8
3DE
386
000
3B4
000
000
000
000
000
356
000
000
000
000
000
000
000
000
000
000
000
000
000
000
000
000
000
000
000
000
000
000
000
04E
000
000
000
000
000
3C4
000
000
000
000
000
000
000
000
000
000
000
000
000
000
000
000
000
000
000
000
000
000
000
000
000
000
000
00E
000
000
000
000
000
000
000
000
000
000
000
000
000
000
000
000
000
000
000
000
000
018
000
000
3F8
000
000
000
000
000
000
000
000
000
000
000
3DC
000
000
000
000
000
000
000
000
024
000
000
000
000
000
000
000
000
000
000
000
000
000
000
000
000
000
000
000
000
000
000
006
000
000
000
000
000
000
000
000
000
000
000
000
000
000
000
000
000
000
000
000
000
000
000
000
000
000
000
000
000
000
000
000
000
000
000
000
000
000
000
000
000
000
000
000
000
000
000
004
000
000
000
000
000
000
000
000
000
000
000
000
000
000
000
000
000
000
000
000
000
3F2
000
000
000
000
000
000
000
000
000
000
000
054
000
000
000
00C
000
000
000
050
012
076
000
000
000
000
000
05C
000
000
042
000
000
000
000
014
000
3EA
000
000
000
3BA
004
3D6
000
000
000
3D0
000
006
000
3B8
010
000
3FC
000
000
000
000
05E
386
03C
000
000
000
000
000
000
000
000
000
054
000
3A8
000
000
000
3E8
33A
000
000
000
000
000
000
056
000
000
000
000
000
066
000
000
092
000
000
000
000
000
000
000
000
000
000
056
000
3B2
328
000
000
00C
3CC
000
000
000
000
000
000
000
3DA
000
002
000
000
000
000
00C
3C6
3C2
000
000
000
354
09E
386
3D6
000
040
010
000
000
032
000
000
000
07E
000
000
026
000
000
000
000
000
000
3EE
000
000
00C
000
3D4
3EE
088
000
000
000
000
000
000
000
004
000
000
000
022
3A8
000
01E
000
068
000
000
060
3FA
000
000
000
000
000
000
3B6
000
000
000
0C6
026
000
000
000
000
026
000
000
000
000
000
382
000
000
000
04E
000
000
000
000
000
002
000
374
000
0FC
000
0A4
076
000
000
000
000
000
000
000
000
000
000
0B0
000
3DC
000
000
000
000
098
000
000
000
082
000
000
000
046
3F2
000
000
000
020
000
000
030
3FA
050
000
000
000
000
000
37C
000
044
000
000
012
000
048
000
360
000
000
000
000
000
000
000
000
000
000
000
000
000
000
000
3CC
00C
3E4
000
000
000
000
000
3DA
310
084
000
004
000
000
000
000
3C2
000
000
000
000
000
000
03A
000
000
01E
000
02E
000
000
000
000
000
000
000
000
000
3EC
3FA
000
000
000
000
04E
000
000
02E
000
3F0
000
006
064
000
000
000
3F8
000
000
01C
000
000
000
000
0A0
000
000
000
000
000
000
000
000
000
000
008
3DE
000
000
000
000
000
006
000
000
000
000
3F0
000
000
000
000
000
000
000
000
000
000
000
000
38C
000
000
000
02E
000
000
000
000
000
3BE
000
000
000
000
3D2
000
046
000
3A2
000
000
044
000
000
016
0C2
000
018
358
09A
000
000
010
000
000
020
070
000
000
000
000
000
000
000
000
000
010
000
000
3CE
000
000
000
3E8
000
000
000
000
3FE
38C
3A0
000
000
000
000
348
082
000
000
000
000
000
000
0AE
000
000
000
000
018
000
000
000
000
048
016
000
07E
000
058
000
000
000
000
000
03C
000
000
000
000
000
000
020
000
000
3F0
000
000
02A
000
3D4
000
000
000
030
038
3D6
000
000
3FA
000
000
000
000
000
000
3FA
000
000
000
000
000
000
000
000
000
000
3E4
000
000
08C
000
3FE
000
000
000
000
000
000
000
000
000
086
000
000
000
000
000
000
000
000
000
000
006
3D0
000
000
000
03C
000
000
000
080
000
038
000
000
3FE
000
000
000
052
3FE
000
000
3E8
000
000
000
000
000
000
000
000
000
314
000
000
000
00E
012
000
000
000
370
000
000
000
00C
000
000
000
000
000
000
000
000
000
000
3EE
000
000
3C0
000
3A4
000
000
07E
3B6
304
002
000
000
072
3AC
000
350
348
000
000
000
000
000
000
000
000
000
072
000
056
000
3BA
000
372
012
3FC
000
06E
000
398
000
000
004
3D8
004
018
000
000
000
3AE
04C
3E8
000
000
000
000
000
000
07A
000
3D4
000
000
08A
000
018
020
000
04E
002
000
000
000
072
000
000
000
000
000
000
000
000
000
020
0A0
09C
000
000
004
008
000
0C6
000
018
3D2
370
002
000
3C4
3E4
000
38E
000
010
000
000
000
000
000
000
09A
000
000
02C
000
000
086
058
000
36E
000
000
000
000
364
04C
000
000
000
084
000
3CE
0C4
02A
000
038
000
3FC
000
3BC
018
000
3FE
000
35A
390
000
000
000
000
000
000
000
000
000
06A
03A
000
000
3D8
0A2
006
000
008
072
3B4
000
000
000
000
3E0
000
064
044
046
000
3D2
000
000
000
014
06C
000
000
000
000
000
000
000
000
06C
000
3AE
000
3B6
082
000
000
000
000
000
000
000
000
000
000
000
000
000
000
03E
000
3D8
3EC
06A
000
000
000
3DE
3EE
03A
000
006
000
000
000
324
000
000
000
05E
000
3CA
000
000
000
000
004
000
3FE
05E
000
000
000
000
000
3F8
000
000
3BA
052
000
000
000
37A
3BA
000
044
000
000
000
000
094
3D0
3AA
000
000
3FC
000
000
3CA
000
054
000
000
000
000
000
000
000
000
000
000
000
000
000
000
000
000
000
000
000
01A
000
0C2
000
000
000
044
000
008
3E2
000
000
000
000
000
036
000
000
000
3F0
000
000
000
000
000
000
000
000
000
3EA
0E6
000
000
000
000
000
000
366
000
000
000
000
000
000
000
000
000
056
000
000
000
000
000
000
000
000
000
000
000
000
000
01C
000
06C
000
000
000
052
000
000
000
000
000
09E
060
000
000
000
000
000
38C
000
000
000
006
000
000
000
000
000
000
000
000
000
000
000
068
000
000
012
3C4
36A
000
000
000
000
000
3D2
008
000
000
048
000
000
000
3F2
000
000
3FC
002
000
000
000
3FC
000
01A
000
000
084
000
000
000
000
000
000
000
000
000
000
000
378
000
386
3F8
000
3D0
038
000
000
000
022
04A
000
000
000
000
04E
02E
000
000
000
000
3BC
000
064
000
000
0AA
000
340
3B6
000
000
000
000
000
000
000
000
000
000
000
000
000
3BE
002
000
000
066
000
000
3A0
000
000
000
000
3DC
000
3D6
000
310
000
000
3AE
05E
062
000
000
000
014
000
000
3F8
000
002
000
000
000
000
000
000
000
000
000
000
000
000
000
000
03E
030
000
37C
000
3CE
000
000
000
000
000
380
000
000
000
000
0B0
078
000
3FC
000
000
000
000
3D8
000
000
000
002
000
000
000
000
000
3B8
026
000
000
000
000
050
000
000
3B6
000
000
000
06C
000
000
040
000
000
000
000
00E
000
000
000
000
000
000
000
090
000
000
3DE
000
000
05C
000
000
000
024
000
000
000
000
000
000
000
01A
000
000
000
000
000
000
000
000
000
000
000
3EA
000
000
000
000
000
000
000
000
000
000
000
3F8
000
000
000
000
000
000
000
000
000
000
000
000
000
000
000
000
000
000
000
000
000
000
000
000
000
000
000
000
000
000
000
000
000
000
000
000
000
000
000
000
000
000
000
000
000
000
000
000
000
032
000
000
000
000
000
000
000
000
000
000
000
000
000
000
000
000
000
000
000
000
000
000
000
000
000
000
000
000
000
000
000
000
000
000
000
000
000
000
000
000
000
000
000
000
000
042
000
000
000
000
000
000
000
000
000
000
000
000
000
000
000
000
000
000
000
000
000
000
000
000
000
000
000
000
000
018
000
000
000
000
000
000
000
000
000
000
000
000
000
000
000
000
000
000
000
000
000
000
000
000
000
000
000
000
000
000
000
3A4
000
000
000
000
000
000
000
000
000
000
000
000
01C
000
000
000
000
000
000
000
000
000
000
000
000
000
000
000
000
000
000
000
000
000
000
3F6
000
000
000
3BE
000
000
000
000
000
050
000
038
000
000
032
000
000
000
000
000
3E4
000
000
000
000
000
000
000
000
008
000
000
000
000
000
000
000
000
000
000
000
000
000
3D8
000
000
000
000
000
000
000
000
000
000
000
000
000
000
000
000
000
000
000
000
000
000
000
000
000
000
000
000
000
000
000
3E8
000
000
000
01C
000
000
000
000
000
000
000
000
000
000
000
000
000
000
000
000
000
3F4
000
000
000
000
000
000
3FE
000
000
000
3F6
000
000
000
000
000
000
000
000
000
040
000
000
000
000
000
000
000
000
000
000
000
000
000
020
000
000
000
000
000
000
000
3EA
000
000
3EA
04A
000
000
000
000
000
000
000
000
000
000
000
000
000
000
000
000
000
000
000
000
000
000
000
000
000
000
000
000
000
000
000
030
000
000
000
000
000
000
000
000
000
000
000
000
0A4
000
000
000
036
000
000
064
3F8
000
000
004
000
000
000
000
000
000
000
000
3FC
000
000
000
000
000
000
000
000
3FE
382
000
000
000
000
000
000
000
3A4
000
000
000
000
000
000
00A
000
000
004
060
000
000
000
000
000
000
016
000
000
000
000
000
000
000
044
000
000
000
000
000
3F4
000
00E
000
000
3D4
000
000
000
000
000
000
000
000
000
002
000
000
000
000
000
000
000
044
000
000
3D4
000
000
000
3A2
038
000
000
000
000
000
000
010
002
000
2D4
000
03E
01E
0B2
000
000
000
000
000
000
000
000
000
000
000
000
3FA
3F4
000
000
038
000
000
000
000
002
000
000
000
000
000
000
000
000
084
000
000
03C
000
000
3FA
000
39A
000
000
000
000
000
3FC
046
000
3D4
000
31A
002
3FA
024
00A
000
030
000
016
000
000
000
03E
000
000
000
000
000
000
000
39A
000
000
000
000
000
000
000
000
000
000
000
000
000
002
012
000
000
000
000
000
346
000
394
000
01A
000
000
000
080
000
000
000
000
004
000
000
000
000
000
000
000
0C0
360
000
000
000
0A2
3E8
000
3FA
05C
004
000
000
000
062
000
000
000
01A
05E
000
3E0
000
000
038
06C
000
000
000
3FE
3B8
000
006
3DE
000
000
052
000
000
000
3E8
000
000
3BA
012
000
000
006
000
000
3FE
000
000
000
01C
03E
000
3EA
05C
000
000
020
000
000
000
000
08C
000
000
000
00E
000
000
000
0A4
000
000
000
000
000
000
3B4
078
000
000
000
000
00A
000
00E
000
000
098
000
00A
004
000
000
000
000
000
3A2
000
320
00E
3B2
014
000
000
000
000
000
000
000
000
000
006
000
3F2
000
000
000
30A
000
000
000
000
3C6
3FC
00A
000
016
00E
000
004
000
33E
000
000
35C
000
000
000
018
000
3FC
344
3EC
000
000
000
000
000
000
000
3C4
00C
000
000
000
000
000
000
000
000
000
000
000
3E8
000
000
038
000
000
000
000
000
02C
000
000
000
000
084
000
000
000
000
038
000
000
01A
000
000
000
000
000
000
000
000
000
000
3E2
000
000
038
000
3DE
000
000
04C
000
002
000
000
000
000
000
000
000
05C
066
000
36C
000
022
3C4
000
054
016
000
000
000
000
000
000
000
000
388
000
000
000
000
000
000
3EC
000
000
000
000
000
08A
04C
000
000
000
000
3D8
000
034
3C8
000
000
000
000
000
000
000
000
000
000
000
000
000
000
000
000
000
000
000
000
000
064
00A
000
3DC
000
000
000
000
09E
3CE
000
000
000
000
000
000
000
000
000
000
000
000
000
000
02C
000
01E
000
000
000
000
000
000
000
000
3E4
3E2
000
000
000
3FA
000
3F8
000
000
3B6
000
000
000
000
000
024
000
000
000
000
000
000
000
000
000
000
076
000
000
000
000
000
000
000
000
000
000
000
000
000
000
000
000
3E6
000
000
000
000
000
000
000
000
0B4
000
05E
3CA
080
000
000
000
000
000
000
008
000
0AC
3FE
000
36E
000
3FC
01E
000
000
000
000
000
01C
000
000
000
018
000
000
002
3D8
394
3FE
000
000
000
000
37A
000
042
000
000
000
000
000
000
000
000
000
05C
000
012
02E
000
046
000
010
09E
000
000
014
000
318
006
2FE
3DA
000
000
000
000
3FE
000
3FE
046
01C
3F0
000
000
026
000
000
000
000
084
000
000
000
000
000
000
000
098
000
000
000
000
000
002
000
000
000
000
000
000
000
000
000
000
000
000
000
000
3FA
36C
3E2
000
000
000
000
000
000
000
000
3E2
3C0
36E
000
000
000
062
3F6
3CA
000
002
068
000
000
000
3FC
000
000
000
000
07E
000
000
000
000
000
000
3F6
000
000
000
000
000
3FE
03A
000
000
000
000
000
000
052
000
000
000
000
3DA
000
000
078
000
000
000
00C
000
000
000
000
06E
000
3FE
000
000
05A
02E
04E
000
35C
000
002
000
000
000
000
000
000
044
000
062
000
000
3FA
008
000
000
03E
000
000
000
076
3C4
000
000
028
000
000
000
000
000
000
016
000
000
3E4
3CE
000
000
000
3FE
3FC
000
3FE
000
000
000
000
000
000
33E
000
000
000
08A
000
000
000
3D6
000
000
34C
000
000
000
000
3FE
000
000
000
000
01A
06C
000
000
000
3EA
000
000
000
000
3B4
000
002
000
000
006
000
090
000
000
000
000
000
000
000
3C4
020
3B4
000
000
000
000
00A
3D8
000
000
000
000
000
386
000
000
000
000
000
008
000
3CC
000
000
000
000
000
000
000
000
00A
000
000
000
000
006
000
000
000
3F8
000
000
000
000
000
000
000
3EE
000
000
3EE
000
000
000
000
000
000
000
000
000
002
000
000
000
3FE
000
000
000
004
000
000
000
000
000
09C
000
09E
000
000
000
000
000
000
000
3C6
000
000
058
000
000
000
000
03E
000
000
000
000
000
00C
000
000
000
000
000
07E
000
000
01A
0A2
000
000
000
000
3E2
012
368
000
000
000
000
000
000
000
000
000
356
000
02C
000
000
06E
000
000
3B8
000
000
000
000
000
000
3FA
000
000
000
3F8
000
3C0
000
000
000
034
000
000
388
000
000
000
000
3EE
000
000
000
3FA
000
000
000
000
000
000
000
096
000
000
000
000
04C
000
000
000
000
000
000
000
000
000
000
064
000
000
000
0A2
000
000
000
000
000
000
000
01E
000
000
3AC
000
000
000
000
000
000
000
000
000
000
000
000
000
000
390
000
000
000
048
000
000
000
030
000
000
000
000
000
000
000
3FE
000
000
000
000
000
000
000
000
000
064
016
000
000
000
000
036
000
3FE
038
004
000
000
012
000
000
000
000
000
000
000
0B0
380
000
066
000
000
000
000
000
000
000
000
000
000
000
000
000
000
000
000
3FE
3C6
000
3F4
000
000
000
000
000
000
3FA
000
000
000
000
000
000
000
000
000
000
000
3F2
000
000
000
000
000
000
000
000
000
000
00C
000
000
000
000
000
000
3E6
000
046
000
000
010
000
000
000
000
000
000
07C
000
3F8
000
3E8
000
000
048
000
3EC
3F6
000
000
000
000
000
000
338
000
000
000
000
018
000
000
3FE
000
3DC
000
000
000
000
03E
000
3E6
050
000
000
000
082
000
07C
000
040
3FA
000
000
000
07A
000
000
000
000
000
000
000
3EA
3B4
000
000
000
000
000
000
000
000
000
3F6
000
094
000
000
000
000
3F4
000
000
000
000
000
000
004
000
000
000
000
000
000
304
36C
044
000
062
000
000
056
000
000
000
3BC
006
000
000
000
000
000
3F0
000
000
082
000
3B6
000
000
000
000
000
388
3E0
000
000
000
068
058
000
3F6
08E
042
3FA
06C
3AA
006
000
3FE
000
3D2
000
000
000
01C
3E4
000
002
000
3F8
000
000
00C
000
01E
3F8
000
000
000
000
000
000
000
308
000
000
000
000
000
000
000
000
000
000
000
000
000
3FA
02A
000
064
000
000
000
000
000
3D6
000
000
366
000
000
000
000
3FE
3D6
3EA
00C
000
000
000
000
000
3B8
000
000
3A2
002
000
000
000
000
04E
000
000
02E
3AE
330
3C4
032
00E
2F6
000
3C8
000
002
000
000
03E
000
000
000
000
000
01E
000
000
04A
3F8
000
000
000
000
000
000
000
000
004
000
000
000
012
36C
000
042
000
000
000
3E2
000
03C
000
3FE
000
000
000
3D8
000
07C
000
3F6
022
000
000
07E
000
034
000
000
000
000
000
000
000
010
000
008
000
0C2
000
000
000
000
000
000
3FC
000
000
3FE
052
000
000
000
008
000
000
000
000
000
000
000
000
000
000
000
01E
002
000
000
000
018
000
06C
084
368
38E
024
000
000
000
000
000
000
000
3D2
000
09E
000
3C0
000
000
000
3D8
04A
000
000
000
000
000
000
000
034
000
030
000
000
000
000
000
000
000
000
01C
000
01E
000
3FE
000
368
000
3E6
000
000
000
000
102
000
000
000
000
3F6
072
000
000
000
058
000
058
38E
024
000
000
000
000
000
3C8
0E2
000
000
000
076
3FE
000
3A6
000
000
000
000
3AA
000
3F6
000
000
000
000
000
000
000
000
000
000
000
000
000
000
3F6
000
000
000
360
000
000
000
000
3CA
000
3F0
000
3E2
034
308
000
006
002
000
000
000
000
000
3EE
3CC
000
000
35A
3A8
000
000
000
000
000
000
000
000
000
000
3F0
3B4
000
000
38A
000
000
000
000
04A
000
000
38C
000
07E
3F8
068
000
000
000
000
000
000
000
06E
000
000
000
02E
37C
000
37E
000
01E
000
000
000
000
000
3A2
000
392
3FC
000
2E2
000
000
000
000
000
11E
000
000
3AA
000
004
000
06A
058
086
0A2
000
000
000
000
034
002
000
000
02E
000
0B4
000
026
086
000
390
000
000
000
000
048
3FE
000
0C8
09E
000
000
000
000
000
000
000
000
000
004
000
000
000
000
012
000
3BC
000
000
006
000
000
000
000
000
000
000
000
000
000
3D2
000
000
000
008
000
000
000
000
000
000
000
000
000
000
000
000
000
3E2
000
000
000
000
000
000
000
000
000
000
000
000
000
018
000
024
000
000
000
03E
000
000
000
000
000
000
000
000
000
000
000
000
000
000
000
000
000
000
000
000
000
00C
000
000
000
000
002
000
000
000
000
000
000
03E
000
000
396
062
000
000
000
000
000
000
000
000
000
000
000
000
000
000
000
000
000
000
000
000
000
000
000
000
000
000
000
000
37E
000
000
000
000
000
000
000
000
000
3E8
000
000
000
000
000
000
000
3FE
000
000
000
000
000
000
000
000
000
000
000
000
000
000
000
000
000
000
000
000
000
03A
000
008
000
000
000
000
000
000
000
3D2
000
000
000
000
000
000
3D6
000
000
000
000
000
000
000
000
000
000
000
000
000
000
000
000
000
000
000
000
000
000
000
000
3F8
032
044
000
000
000
000
3B2
000
000
004
3F2
008
000
002
000
000
3A4
01A
000
000
3AE
000
000
398
354
000
000
056
000
000
000
3DE
008
000
000
000
000
000
3E8
014
3BA
000
000
000
000
000
04E
000
000
000
000
020
0B0
38A
000
000
000
000
016
3EA
000
000
000
000
010
000
000
054
036
000
00A
028
000
000
000
000
028
000
02C
00C
03C
000
000
3C0
000
000
00A
000
000
000
008
000
036
350
000
000
000
33C
000
000
000
000
000
3FE
01A
05E
000
3E0
000
000
000
000
3DA
000
000
000
000
04A
000
000
004
000
3FE
000
000
37E
012
3DC
008
000
000
000
000
3EE
000
068
3FA
000
3F6
3E8
000
0A2
000
000
000
000
000
326
000
000
000
374
000
3CA
000
34C
000
000
000
000
000
000
000
000
000
000
000
000
024
000
00A
000
000
000
000
000
04A
07E
008
000
000
000
3E4
008
000
000
03E
000
000
000
000
000
3F0
000
000
000
000
066
044
04E
000
000
000
000
062
002
000
3E8
0DC
000
000
09C
000
000
000
000
026
000
388
01A
38E
01E
3FE
394
064
000
32C
000
006
394
06E
000
000
002
000
00E
078
36E
000
000
000
03A
000
000
000
3AC
000
2FE
000
01E
05E
098
000
000
080
000
000
000
000
3D4
05E
05C
000
000
000
058
3F0
000
000
3E0
000
000
000
05A
032
000
000
000
000
000
000
000
3D8
388
000
09C
000
000
3E2
000
3E0
022
008
000
000
3F6
000
000
000
000
000
000
000
36E
000
000
000
000
000
000
000
000
3B4
000
05C
000
000
000
000
000
3D2
036
000
000
000
072
3E6
3BA
000
000
000
000
000
000
3FE
000
000
000
3AA
04C
000
056
000
04A
34A
000
000
000
3F2
000
000
07A
000
000
000
3A8
3F6
02A
010
3F6
000
03E
000
3FA
062
09E
000
000
366
000
000
084
000
3FC
000
046
000
000
000
000
00A
072
000
01C
000
3BA
2FA
000
000
0AA
000
000
00E
000
388
000
000
000
000
0A8
000
000
000
000
012
000
014
000
000
000
000
000
000
000
000
000
000
000
3FA
000
000
000
000
000
098
000
000
000
000
000
09C
000
000
000
000
000
000
000
000
000
02E
000
000
000
000
000
000
000
000
000
01A
000
3C8
06C
000
3F6
000
000
000
044
000
000
000
000
000
000
3D6
000
000
000
3CC
000
000
000
000
000
000
3E0
036
000
000
000
000
066
000
000
004
000
000
000
000
040
08E
000
02E
3C2
000
3C2
00E
000
000
000
000
3DC
3BA
028
000
000
000
000
000
000
000
000
000
000
000
01A
000
000
05E
000
000
000
082
016
000
026
000
000
000
000
000
000
000
074
000
000
000
3A8
000
000
000
000
000
000
000
000
000
000
000
000
000
04C
004
000
00C
3CE
000
000
000
000
000
000
000
000
000
000
000
000
000
000
000
000
000
000
000
000
02A
000
3EC
09C
000
000
000
000
000
000
000
000
000
000
3FC
000
000
000
000
004
000
000
000
000
000
000
000
000
000
000
000
3AA
000
000
000
064
000
000
000
000
000
000
000
000
000
000
000
000
0DA
000
000
000
3C8
000
01C
000
000
000
000
000
000
000
000
000
000
000
000
000
000
000
000
000
000
3FC
000
000
000
000
000
000
000
068
00A
000
000
000
000
01C
000
064
000
000
000
000
000
02A
000
000
000
000
000
000
000
000
000
000
000
000
000
000
000
000
38C
000
000
000
000
01E
000
030
000
008
066
008
000
000
000
000
000
000
000
000
000
000
000
000
37A
000
000
000
000
384
3EA
000
000
000
000
000
000
000
000
000
000
000
000
000
000
000
000
006
000
000
000
000
000
000
3F6
052
000
000
080
000
000
000
000
000
000
000
000
000
000
000
000
000
032
000
000
000
000
000
000
000
000
000
006
000
000
000
000
000
000
3F8
000
000
000
000
000
000
000
000
000
000
000
00A
3F4
000
000
000
000
3E0
000
000
000
000
000
000
028
000
000
000
000
000
3FE
000
000
000
3FC
000
000
05E
3C2
000
3DE
000
000
376
000
000
000
3E0
000
3E4
000
054
000
000
000
000
000
000
000
000
000
000
000
066
000
000
054
000
3FE
000
000
014
000
000
000
000
000
000
000
01C
000
000
000
018
000
0D0
000
000
000
000
000
000
004
000
000
000
000
000
06A
000
000
000
000
3DA
000
000
38E
000
000
004
000
000
000
000
000
000
028
000
000
3F8
000
000
000
000
000
086
000
3F8
000
000
000
396
000
000
000
000
000
08E
000
000
3F0
000
000
000
000
000
000
000
018
000
000
000
000
000
00E
000
000
044
000
01E
3C4
000
000
000
000
002
000
000
000
03E
000
038
000
38E
000
000
000
002
000
06A
000
000
000
012
000
000
000
076
000
000
000
000
000
000
000
000
000
000
000
000
000
000
066
000
000
000
000
000
000
000
000
000
000
000
000
000
000
000
000
066
000
000
000
398
04C
000
000
3D2
000
078
04A
3BA
3EC
000
3F6
000
000
000
000
000
05C
000
3F6
000
000
000
000
3DA
026
000
000
000
000
000
000
000
000
000
000
000
000
086
000
000
35E
072
000
000
000
382
000
000
008
002
04E
000
354
000
000
000
000
000
000
3E0
000
000
000
008
000
000
000
000
000
000
000
000
3C8
000
000
000
02A
000
000
000
394
000
000
000
000
000
000
060
000
374
080
086
0B0
000
000
000
000
000
000
34E
000
002
000
092
000
000
000
366
000
000
3A4
062
000
3C4
000
0D2
000
03E
0DA
000
000
000
000
000
000
044
000
33A
000
002
000
000
000
000
05E
086
060
010
000
06A
000
000
000
064
05C
002
000
000
000
000
000
388
000
000
000
038
04E
000
000
39C
0F6
000
000
000
000
30A
000
000
000
000
000
3BA
000
000
000
000
000
000
000
000
000
000
33A
000
04A
000
000
000
3F6
036
06C
000
000
000
000
000
052
048
000
000
000
000
000
000
04C
3F8
000
000
000
000
000
000
000
3AA
396
000
000
000
000
000
000
004
370
000
000
3D8
000
000
000
000
000
004
000
3C4
03A
000
0CE
000
042
000
000
3FE
000
000
002
000
000
000
000
080
000
000
000
000
04A
000
000
000
05E
060
000
000
3A0
000
3B8
000
000
010
3A4
000
000
3F4
000
000
000
37A
000
000
000
000
000
000
0B0
000
000
094
000
000
05C
000
05C
000
000
088
362
000
000
000
000
000
0A8
3AC
000
0CE
000
000
002
000
000
000
08A
000
000
000
000
056
0A8
000
000
000
000
000
3CC
3FC
3B2
000
000
000
000
000
34A
000
000
35E
090
378
000
000
092
000
000
000
000
372
39C
3F8
000
000
3C6
086
000
000
000
074
000
000
006
000
3FC
3E0
000
00C
000
378
3AC
000
000
0BC
03C
000
3D0
000
000
05C
000
05A
000
000
39A
000
000
090
000
000
048
000
000
000
004
000
000
394
000
118
000
000
000
000
000
000
000
000
39A
308
000
348
000
006
000
000
000
000
000
000
000
000
000
000
000
000
000
000
000
3EA
000
3BC
000
000
018
004
000
000
000
000
36E
000
3A8
000
000
030
000
000
000
000
000
000
000
000
0B8
3EE
000
3DE
000
000
000
000
000
028
000
000
000
0C0
000
000
000
032
0DC
000
030
000
000
000
3DC
000
01A
03A
3EE
000
000
3BA
01C
000
000
3FE
056
000
000
000
000
000
000
016
054
008
000
01E
000
000
000
000
000
000
000
000
000
000
000
3E6
000
000
000
000
000
06C
000
000
374
000
000
000
000
000
000
000
000
000
000
008
000
000
000
000
000
378
000
000
000
000
000
000
000
000
000
000
000
000
000
000
066
000
000
000
000
002
000
3FE
000
042
000
000
000
000
000
000
000
3EA
000
000
000
000
000
000
3DC
000
000
000
03C
000
000
000
000
000
000
000
3E0
000
000
000
000
000
054
000
000
000
098
000
000
044
000
3FC
000
000
000
000
046
000
000
054
000
3FC
3AC
000
36C
000
000
000
000
000
046
000
05E
000
000
000
07A
000
000
078
000
3C0
000
000
000
000
000
3FC
03E
000
084
000
33E
000
012
3FE
3C6
01C
000
032
000
000
000
000
000
000
000
000
376
000
094
000
3F2
000
000
07A
000
000
09E
084
02C
03C
000
000
000
000
3FE
000
000
000
000
398
000
000
07C
000
01E
090
000
082
094
040
064
000
3D2
000
000
002
3B8
038
000
348
068
00A
000
000
000
000
3B8
000
04C
000
000
07E
000
000
000
000
000
000
000
3FC
000
000
000
000
000
000
000
3F8
000
038
000
000
000
388
0AE
000
084
000
000
060
000
000
330
000
000
000
000
05C
000
03E
002
000
046
000
03E
000
00E
3FE
000
356
0D4
000
000
000
000
00E
070
000
000
3F4
3FC
058
000
008
008
000
000
000
3F8
3DE
000
000
3E2
3FE
000
000
000
37C
3E8
000
000
000
3B2
000
000
386
3D8
384
000
046
000
000
000
000
000
000
000
078
3BE
008
3FE
00C
000
000
000
000
000
000
37A
000
0C8
002
3D6
000
000
3F2
000
000
000
000
000
000
000
000
000
39A
000
000
04E
04E
000
000
000
2FA
3FC
0BA
374
000
03A
000
000
000
000
000
000
000
07E
000
02C
000
000
000
000
3AE
000
3E2
3FE
000
000
000
000
000
3CE
000
072
000
000
3FE
3DA
000
000
000
3C0
02C
000
000
000
000
000
000
000
000
08A
000
000
000
0C4
000
000
000
000
000
000
000
000
000
04C
092
000
000
004
02A
038
000
000
000
000
000
3B4
370
000
000
3FC
3FC
000
000
000
000
000
000
000
000
000
3B0
000
3F4
000
008
000
000
000
3FE
366
000
000
000
000
000
000
000
000
000
07A
3BE
0D4
3C4
088
000
000
000
000
000
000
000
000
3CA
000
02A
39E
000
000
07E
002
000
04E
000
000
000
3F8
0D6
0C2
000
000
3EA
000
000
000
000
000
000
000
3FE
000
000
000
040
000
000
000
000
000
000
000
002
000
000
000
000
000
000
000
000
000
000
000
000
000
000
000
000
3FE
000
000
000
00E
000
000
000
000
000
000
000
000
000
000
000
000
000
000
000
000
000
3F6
000
000
002
000
000
000
000
000
000
000
000
000
000
000
000
000
000
000
3F6
000
000
000
000
000
000
000
000
000
000
000
000
002
000
000
000
000
384
000
000
000
000
01A
000
000
00E
000
000
000
000
000
000
000
09A
000
000
000
000
000
000
000
000
000
000
000
000
000
000
000
000
000
000
000
02C
000
000
000
000
022
000
000
000
048
000
000
000
000
000
000
000
000
000
000
000
3F6
000
000
3E6
000
000
052
000
000
000
000
000
000
00A
0CE
000
3DA
000
000
000
000
000
000
000
000
000
000
01A
000
000
000
000
000
000
000
000
000
000
000
000
000
000
000
016
000
000
328
000
000
000
000
000
000
000
000
000
000
000
000
000
000
000
000
3F0
070
000
000
000
000
000
000
356
000
000
000
0A8
000
01C
000
3EE
3FA
000
000
068
3AC
000
394
000
000
000
000
000
000
000
000
000
000
000
044
000
000
3FE
3FE
000
060
000
000
000
000
000
030
000
002
000
000
006
3EC
000
000
000
05C
000
36A
3C6
024
000
000
000
000
000
000
000
000
000
00C
000
000
000
000
000
000
000
000
000
000
000
000
000
000
000
3E8
002
000
000
000
000
000
3FC
000
000
000
000
000
000
000
00C
000
00A
000
000
000
000
014
000
000
000
000
000
000
000
000
000
022
3F2
3EA
000
000
000
000
000
000
000
000
000
000
002
000
000
000
000
000
000
000
01A
000
000
000
000
090
006
000
080
000
000
000
000
000
000
000
000
000
3BC
000
000
3F6
3FC
000
000
000
000
000
000
000
08A
000
000
000
3C6
000
000
050
000
080
000
386
000
000
000
000
06A
000
000
3CE
000
000
000
020
000
000
000
000
3AE
000
000
00C
000
000
000
092
07E
000
000
000
000
000
000
000
000
3A8
02A
000
000
000
000
000
000
000
00E
000
000
000
012
000
000
000
006
000
000
034
032
000
3F2
000
3E0
000
000
092
000
000
3FE
000
000
000
000
000
000
000
000
000
00C
000
000
002
000
000
360
000
000
000
388
000
07C
000
000
000
000
000
000
000
000
000
000
000
000
000
050
000
08E
000
000
024
0AA
07A
000
01A
000
000
000
000
000
000
3BC
000
334
050
000
000
000
000
000
000
000
000
000
3DC
000
000
000
000
000
000
000
034
000
058
000
000
000
3EA
000
000
3D4
000
09C
392
000
010
000
000
000
000
000
000
000
000
000
390
000
000
030
000
000
000
000
050
000
000
000
364
3C6
000
3DC
3E6
3FC
062
39A
000
000
000
022
000
000
000
000
000
030
06E
000
000
05A
000
000
000
060
000
000
000
000
030
000
000
000
000
000
01E
000
000
000
3B2
000
000
000
000
000
000
000
000
000
000
000
000
000
000
000
000
000
3BA
000
000
000
000
000
000
000
39E
000
018
000
000
000
028
000
000
000
000
002
022
000
000
000
000
000
000
014
000
000
000
000
000
360
000
000
000
000
3D4
398
000
000
002
000
000
000
000
000
000
39E
000
000
006
31E
000
3F8
000
000
000
07C
000
000
000
000
000
000
000
008
000
000
000
000
000
000
000
014
000
00A
000
000
000
000
000
31A
000
000
000
000
000
000
000
000
000
000
000
000
000
000
000
000
000
000
000
000
000
000
04C
000
3FA
01E
000
000
3D2
000
000
000
000
000
000
000
000
000
05A
000
000
000
000
000
000
000
000
000
000
000
000
000
000
004
000
020
000
000
000
000
000
000
000
000
000
000
000
042
000
000
000
000
000
000
000
000
000
05C
3FE
000
3FE
000
3FC
000
000
000
3FA
000
056
000
000
000
000
000
000
000
000
000
000
050
000
000
000
000
000
000
000
000
000
000
000
3EC
000
000
000
000
000
078
3B8
000
000
000
048
000
000
000
000
000
000
000
000
000
030
000
000
000
038
000
000
0B2
000
000
000
000
000
000
000
000
000
000
042
000
000
064
000
000
000
000
000
3CC
000
000
3FE
000
000
000
000
000
3CE
000
3F8
000
000
000
000
000
000
000
000
000
000
000
000
000
01E
000
3BE
000
000
000
3FE
000
000
000
000
000
000
000
086
000
000
000
000
000
000
006
000
050
000
000
006
000
3C4
000
000
000
000
000
000
000
000
000
000
002
000
03E
3DA
000
02E
000
000
000
000
000
000
000
000
000
000
000
000
046
000
000
35A
000
000
000
0DE
000
000
000
000
000
000
000
000
00A
000
000
000
000
000
000
000
000
008
048
000
000
000
3A0
000
000
000
000
3F0
000
000
000
018
02C
0D8
000
000
01C
000
000
000
000
000
06E
000
000
000
000
000
000
3C0
000
000
3DC
002
000
000
000
000
000
000
000
3F4
000
000
000
004
000
000
3B6
000
000
000
060
3F0
026
086
002
000
000
000
000
36E
39C
032
000
022
000
000
000
368
04E
000
366
010
0B0
000
000
000
000
000
00C
3FA
000
000
000
000
000
000
000
000
066
000
000
000
000
000
000
000
39C
078
000
000
000
000
000
000
000
000
000
000
000
000
000
000
000
076
000
3A4
378
000
000
2F2
000
3FA
000
000
000
014
3E6
3A2
37A
000
000
000
00C
000
000
000
32E
000
000
000
042
054
000
3FE
354
000
032
000
346
000
000
000
3CA
000
000
00A
35C
000
04E
35E
000
000
000
000
000
00A
026
012
000
000
000
000
000
000
09E
0A0
002
002
000
000
000
3EC
000
000
000
000
000
000
000
000
00A
000
000
000
000
03A
008
0A4
3FC
004
000
000
04C
014
000
000
00E
3FC
026
000
000
06E
058
3D4
000
000
34C
3BA
000
000
058
3FC
000
000
000
3FA
000
0A4
000
000
000
000
000
000
000
000
004
000
000
364
000
000
000
000
000
002
3E6
014
3FA
000
39A
000
000
3E2
000
3B4
000
000
000
000
080
000
000
000
000
000
000
000
000
000
0EA
000
000
000
020
030
074
000
000
000
000
3C2
000
000
000
000
000
000
000
000
37E
000
000
000
39E
000
3F8
000
000
000
3D6
000
314
3F8
000
000
000
3DE
000
000
000
000
07A
000
000
370
000
000
380
000
000
000
098
000
000
3DC
06C
000
020
000
000
000
032
000
000
000
3FC
000
000
000
000
090
000
000
082
000
000
000
000
000
3EC
000
000
000
006
000
000
000
000
000
048
000
3D6
01C
000
3F2
042
0B6
000
000
000
000
3BC
000
392
000
000
016
000
000
000
000
07E
000
084
01A
002
0AC
074
000
002
000
3FC
000
3E0
000
000
000
000
000
000
04E
000
000
000
000
000
000
012
3F6
000
000
3E8
382
014
000
000
000
000
000
000
05C
000
3E2
000
000
000
000
000
000
000
000
000
000
000
004
000
000
000
000
000
000
07E
000
000
390
000
000
000
000
07A
3A6
000
000
054
000
04C
000
000
000
000
000
3E0
344
028
000
3FC
000
000
000
000
000
000
000
2FC
000
3C0
000
000
3F8
360
3B8
3D8
000
3AE
000
000
000
066
000
000
000
07A
3F6
386
000
018
000
070
3FE
000
382
000
000
000
082
000
000
000
068
000
000
000
00C
000
014
000
000
3AA
002
000
016
000
000
000
000
000
006
000
000
00C
3AC
000
066
000
000
000
000
000
000
3AC
000
002
02A
000
04C
000
000
000
000
000
000
03C
39C
332
000
000
000
06A
386
02A
000
000
3FE
000
000
074
376
3CE
022
004
31E
000
000
03E
000
000
000
028
000
000
000
000
3BC
000
076
01A
000
386
000
000
0BA
000
000
000
000
374
380
000
000
04C
050
3DC
000
012
000
006
000
000
000
052
000
3CE
078
000
000
000
000
000
000
052
000
000
000
000
02C
3EE
000
000
000
000
000
000
000
000
000
000
000
000
000
06E
000
000
000
000
3FC
000
000
000
000
000
000
000
000
000
000
000
000
000
000
000
072
000
3FE
000
000
000
3D6
068
000
000
000
000
000
000
000
000
000
35C
080
000
048
000
3FC
000
000
000
022
3F2
000
000
010
000
000
000
000
000
3A0
000
000
02C
000
000
38E
3D4
002
350
3F4
000
000
000
000
000
000
000
000
000
380
000
068
000
000
000
000
000
000
000
000
050
000
01A
038
000
000
000
000
000
000
000
076
000
000
000
000
000
004
000
000
014
000
000
000
000
000
000
3FC
000
000
000
000
3E8
000
3E8
3FE
000
3A0
000
000
000
000
000
000
000
000
000
000
000
000
08A
000
3F4
000
022
3F8
000
000
060
3D6
000
000
092
000
000
000
004
000
000
3A4
000
000
000
000
000
3EC
000
000
37A
000
082
000
000
000
3BA
000
000
000
000
070
3FA
000
3D6
000
000
000
000
000
070
000
000
002
046
000
000
000
380
016
006
000
09E
000
000
000
000
00C
00A
04C
000
3D8
3FC
000
000
000
000
000
000
000
000
000
000
000
028
000
000
000
000
000
000
000
000
000
08C
000
000
000
000
000
000
004
000
000
3CE
000
000
00C
000
000
000
000
000
000
3DE
000
000
000
000
3F2
000
000
06C
000
000
000
000
000
000
0C4
002
000
31A
000
030
000
000
000
000
038
000
000
000
000
000
028
000
000
000
000
02E
000
000
000
000
396
06E
000
002
000
000
000
000
01E
09C
000
000
000
032
000
000
000
000
00E
000
000
000
03A
000
000
360
000
000
016
0A0
000
000
000
000
000
000
02E
324
000
000
01C
036
09E
36A
026
000
380
000
000
000
000
000
000
000
000
000
000
046
000
000
000
000
000
000
000
03E
000
086
000
000
000
000
026
000
000
01A
000
000
368
082
000
000
000
3EE
03E
000
000
000
000
02E
0B2
000
000
000
000
014
000
000
026
008
000
000
000
000
000
000
000
000
000
000
000
000
000
00A
3F8
026
000
000
002
018
000
000
000
000
000
000
038
012
3E6
000
000
000
000
000
01C
000
3BE
000
000
000
000
000
000
000
3B4
000
000
3A6
000
022
000
000
000
000
018
000
000
000
3F4
3F0
3EA
000
3F6
000
3F8
000
000
000
006
06E
000
000
000
000
000
000
3CE
3FA
000
0F2
000
000
000
000
000
000
000
000
000
000
000
022
004
000
370
000
000
000
000
000
000
3A2
008
000
000
000
000
000
000
3B6
000
000
000
000
026
3BC
000
000
000
002
39A
000
000
000
000
000
066
3E8
072
3B6
000
000
000
000
000
000
000
000
036
000
000
000
394
000
3FC
37E
000
000
000
000
000
000
000
000
000
000
000
000
000
000
032
000
000
372
000
000
3EC
000
000
3F2
000
000
000
000
000
000
004
000
000
000
000
000
00E
000
000
000
000
000
000
000
000
000
00E
000
000
0A4
000
000
000
000
000
000
068
000
000
000
000
000
000
000
000
396
000
000
000
000
000
3C0
000
000
000
000
000
392
000
000
04C
3F6
000
000
078
060
000
000
000
000
000
3CC
000
000
000
3B6
000
000
3CC
000
000
000
000
000
02C
000
000
000
000
000
3AE
000
000
000
000
006
000
000
000
000
000
000
000
000
000
000
0DE
000
000
3D4
000
000
024
036
000
000
000
000
000
000
000
000
000
000
000
000
000
3D4
000
000
000
000
000
000
000
3FE
000
000
000
000
000
000
3FE
000
000
000
000
000
000
064
000
000
000
028
000
000
000
000
3F6
000
02C
000
000
370
000
000
000
000
000
352
000
000
000
000
000
000
000
000
000
000
000
000
000
000
000
000
012
000
000
036
000
000
000
000
3A2
000
000
000
000
000
000
000
000
39E
000
000
000
3F4
000
000
000
000
034
052
000
000
000
000
000
000
000
000
000
000
000
000
000
000
016
000
000
03E
000
000
000
000
000
000
020
000
000
000
34A
3FE
3B4
372
000
020
000
000
000
3FA
396
38E
000
000
000
096
000
34C
000
000
3F2
000
066
3D8
0C6
002
000
000
000
066
000
068
39C
3F4
014
074
3FA
000
000
000
3FE
000
000
000
000
004
000
000
002
000
000
000
000
3FE
3C6
39A
000
000
000
3FC
0A6
38A
000
366
354
058
394
000
000
000
000
000
3FC
000
092
002
352
000
000
086
000
3EE
068
000
000
08C
3E4
00C
000
000
000
334
092
000
016
0D0
3C2
000
000
000
01C
0A4
010
000
3E6
000
3DE
008
000
000
026
000
000
000
000
3FE
000
000
008
000
032
016
000
000
3FA
024
000
012
000
000
000
000
08C
000
000
3BA
000
000
000
000
000
000
076
000
374
022
01C
03C
034
000
000
0A6
000
000
000
000
000
000
3EC
000
000
000
000
004
3DC
000
054
000
3FA
000
000
000
000
000
000
000
006
03A
000
3D2
000
374
000
000
000
000
000
000
3F4
000
000
000
000
000
000
000
000
000
000
06A
3E2
000
3EA
002
000
02C
000
310
000
000
000
000
000
000
000
000
336
000
000
000
000
000
000
3FE
048
000
000
000
3F2
398
000
000
000
000
000
398
000
000
000
000
000
000
000
000
370
000
062
000
000
334
000
000
000
000
3FE
000
3A6
000
000
000
00C
000
000
000
000
004
088
000
000
000
000
000
000
000
000
000
000
000
000
000
000
04C
000
000
000
000
000
000
000
000
3E0
000
000
374
000
000
000
038
000
000
000
000
000
000
07C
03E
000
000
000
000
000
000
000
000
000
000
000
3E4
000
000
000
3CE
000
000
000
000
000
000
000
000
000
000
000
000
000
000
000
000
000
000
000
000
02C
050
010
000
000
000
000
002
000
3B8
000
000
000
000
000
000
000
000
000
000
022
000
050
074
000
00A
000
05A
000
000
000
00E
000
000
000
000
018
000
000
002
088
000
000
000
000
000
3C4
000
008
000
000
000
000
000
000
000
000
000
000
000
000
000
000
000
000
000
000
000
000
000
000
000
000
000
000
3B2
000
000
39E
3A8
01A
000
000
000
000
000
000
3B6
000
000
000
000
000
000
000
000
000
000
000
044
000
000
000
000
000
000
000
000
3C2
000
000
000
000
3FE
000
000
000
000
000
070
000
000
000
3D2
000
000
000
000
04C
000
000
000
000
000
000
3F6
000
000
00C
000
000
000
000
000
000
000
002
000
000
000
000
000
000
026
000
036
000
000
08E
000
000
000
000
000
000
3BA
000
000
000
000
000
000
000
3DE
000
3B6
000
000
000
000
000
024
000
000
000
000
000
000
000
000
000
058
000
000
000
000
000
000
000
000
000
000
3FA
000
000
000
000
000
000
000
3EE
000
000
000
000
000
000
000
000
3D4
000
000
000
3FE
000
000
000
000
000
000
394
000
000
000
000
000
066
000
000
000
000
000
000
000
000
000
000
05E
000
000
000
000
000
000
000
000
000
000
000
000
364
016
000
000
3F8
000
000
000
000
000
01A
000
000
000
09E
000
000
000
000
000
000
000
02E
020
000
000
000
000
3F8
000
00A
000
000
000
000
000
000
000
000
378
000
000
000
000
000
000
000
004
000
052
000
000
000
000
090
000
016
000
000
000
000
000
000
000
000
0F6
000
000
000
000
000
000
058
000
000
000
000
000
000
000
000
02C
000
000
000
000
3FA
000
0D0
000
000
000
000
000
000
000
000
000
3C4
000
000
000
000
000
000
000
000
000
000
000
000
000
000
000
000
3F6
000
000
3DA
000
000
000
000
3FC
000
05E
3A8
000
000
000
000
026
000
000
000
000
000
000
000
000
000
000
3E4
000
000
000
000
000
000
000
000
000
000
000
000
3A6
000
000
000
000
000
000
000
000
000
000
000
006
000
3E0
000
000
000
000
000
3B0
058
000
000
000
000
000
3B2
000
000
000
000
3D4
000
000
000
3DC
000
000
3AC
000
000
000
000
000
09A
000
3C8
000
000
000
000
016
000
01C
000
000
008
000
000
000
02A
000
082
000
000
000
000
000
05A
000
000
06C
000
000
000
000
3C8
000
000
000
3FE
000
000
000
000
39C
3A8
000
000
000
0D8
000
000
040
000
000
016
3C4
090
000
072
08C
000
000
000
3E0
000
000
000
00A
000
000
016
000
032
3CE
000
000
000
000
342
3D4
000
000
086
000
000
000
000
000
37C
000
000
3BE
000
000
000
0B2
000
3F8
000
000
39E
000
056
000
000
000
000
06E
000
000
000
000
000
000
000
000
3FE
048
000
000
046
026
000
3F4
000
000
000
000
000
042
000
000
000
000
000
01A
000
082
000
000
000
000
042
000
000
000
000
09C
000
000
000
000
000
000
000
000
3D0
046
000
000
000
000
000
000
000
000
084
000
054
000
390
000
000
00E
3EE
000
384
000
000
000
000
000
3B4
04C
35E
000
000
066
3A8
024
000
3D8
000
000
000
000
000
382
034
000
03C
0AE
000
000
000
0AE
000
2AA
000
004
000
000
000
000
3DE
08E
000
000
3C6
000
000
000
000
000
010
3F4
000
000
024
060
000
000
000
000
000
000
02C
000
0DE
3AC
066
000
000
000
000
000
000
000
344
3F6
000
37E
000
040
000
000
000
362
000
000
000
000
000
000
000
000
000
39C
01C
3FC
000
000
000
000
000
000
000
000
000
000
000
000
000
000
048
000
000
000
000
366
390
3F4
000
002
000
00A
000
3B0
000
000
000
000
000
000
0A6
000
000
000
000
03C
000
000
398
390
000
000
000
3B2
000
052
000
000
000
390
000
042
000
000
000
000
000
0B4
000
000
000
000
000
000
000
000
000
000
000
004
000
000
000
000
040
000
000
000
000
3FE
3FA
000
000
000
000
0D4
0AC
000
3D6
3EC
058
0BE
000
000
000
000
000
36E
000
000
010
094
000
000
072
04E
000
000
098
000
000
000
000
000
000
000
050
3C6
000
008
000
000
022
000
32E
000
000
062
35C
000
064
000
080
000
000
000
000
04A
000
30E
06C
000
000
000
338
3DC
000
000
000
000
090
000
000
000
04A
000
000
000
06C
072
000
000
004
002
034
000
06C
000
000
000
3F0
000
000
000
000
0B4
012
000
000
002
000
000
0B8
3E2
000
000
3E8
000
000
3E0
36A
046
044
000
000
000
000
382
000
000
000
098
000
39E
000
000
000
346
000
000
004
048
002
060
000
000
0B4
000
000
0D6
39A
000
000
000
000
000
3F4
000
000
000
000
000
000
0D0
000
000
000
000
000
000
018
052
02E
000
058
000
000
034
000
076
000
3CC
000
090
3DA
000
000
000
35A
000
000
000
000
000
000
004
000
000
000
02E
000
000
00E
000
000
000
3D8
000
000
36E
000
000
000
39E
000
39C
000
000
000
000
000
000
036
000
3AE
3AE
000
000
000
004
000
000
000
052
000
356
000
000
000
000
000
000
000
04C
000
3FA
068
000
000
06E
000
010
3FA
000
00E
000
000
38A
3F6
000
000
3FE
000
000
000
000
000
358
000
000
322
3BE
000
000
000
000
3AE
352
000
070
000
044
000
000
000
02C
000
000
000
0D8
000
0B4
000
000
3AC
3C8
082
012
000
38A
000
000
000
000
000
08E
086
06C
00E
000
000
094
000
000
000
04E
000
000
0DA
3F8
000
000
000
000
388
074
386
08A
000
37A
064
052
000
000
000
000
000
000
01E
000
058
004
000
000
000
000
08E
390
0AE
000
000
000
000
000
000
000
000
3F0
000
000
000
01E
3E8
000
000
3BA
000
000
000
066
000
000
000
018
06A
000
000
000
000
000
000
33E
01E
000
000
000
000
000
000
000
000
0A4
000
056
000
000
000
3D6
080
000
31A
000
000
0B6
000
000
000
022
000
000
026
072
03E
000
0BE
000
04C
3FA
000
020
000
34C
000
000
000
03A
000
3F6
3EE
000
000
000
000
3F8
080
394
000
000
3FE
000
000
3F8
000
3DE
000
000
000
000
000
000
3FC
000
000
000
000
000
000
03E
000
024
00A
000
3C4
000
0AE
000
000
000
032
000
000
000
0C2
000
000
000
02C
3E4
052
000
000
034
000
06C
382
320
000
000
014
0AA
3FE
07A
000
000
3F2
0A2
3E0
028
000
3EA
3FC
000
3FA
000
000
000
000
000
000
050
000
078
0A8
000
000
000
02A
07A
000
012
09A
000
000
06E
000
000
020
000
000
000
000
000
012
3E6
09A
3FA
004
3FE
000
000
000
3AE
000
092
000
04E
000
000
000
00C
3F4
000
000
000
004
000
000
000
000
000
090
000
000
000
000
000
000
060
000
000
000
000
012
090
37C
000
000
000
000
000
000
000
000
2C2
000
000
096
000
000
000
000
000
356
000
37A
000
000
000
000
000
000
3CC
358
096
000
000
000
000
000
000
000
000
000
000
000
000
000
3FE
3A2
000
000
000
3D0
000
000
000
000
3D4
000
000
080
3FC
000
000
000
3F6
000
000
000
000
000
000
000
000
000
05A
000
000
000
000
000
000
000
000
000
000
000
000
010
000
00A
09C
000
000
03A
000
000
000
020
0A4
000
000
000
000
000
000
000
000
000
000
3F8
000
000
000
000
000
000
3B4
000
000
036
000
004
000
060
018
000
0B4
070
048
000
000
000
000
3A8
374
028
000
000
000
000
3FE
000
000
000
000
000
056
000
000
000
000
000
396
016
000
000
000
000
032
000
000
028
000
000
000
000
000
000
000
000
000
000
000
096
000
000
000
000
000
008
000
000
066
000
000
000
000
000
000
000
000
000
000
000
000
000
000
000
000
000
000
000
000
3DE
000
000
000
000
000
3FA
004
000
000
000
000
014
04A
000
000
000
3FE
000
000
000
38A
000
0AA
000
05C
000
000
000
000
000
3FE
000
012
000
000
000
000
000
000
002
000
000
000
000
000
000
000
3C0
000
000
000
000
000
054
000
000
000
000
000
3DE
000
000
000
000
000
000
000
000
000
000
000
000
02C
000
000
000
000
000
3E0
000
000
000
000
000
000
000
000
000
000
000
000
000
000
000
000
000
000
000
000
000
3F6
000
000
018
000
000
000
000
000
3E8
000
000
000
000
000
000
000
000
000
000
000
000
000
01C
000
000
000
000
000
000
000
000
000
000
000
000
086
000
000
000
000
000
000
000
000
000
000
000
000
000
000
000
000
000
000
000
000
000
000
000
000
000
000
000
000
000
000
000
000
000
000
000
000
000
000
000
000
000
000
000
000
000
000
000
000
000
000
000
000
000
000
000
000
000
000
000
000
000
000
000
000
000
02C
000
000
000
000
000
000
000
000
000
000
000
000
000
000
000
000
000
000
000
000
000
000
000
000
000
000
000
000
000
000
000
000
000
3AE
000
000
000
000
000
000
000
000
02E
000
000
000
000
000
000
000
000
000
000
000
000
000
000
000
000
000
000
000
000
000
000
000
000
000
000
000
000
3E6
000
000
000
000
046
000
3CC
000
048
000
000
01E
000
000
000
000
000
000
000
000
000
000
000
000
050
01C
000
000
000
000
000
000
000
3A8
000
000
000
000
000
000
000
3FA
000
000
000
3BC
000
056
000
000
3E2
000
024
000
07E
05A
000
000
000
39C
000
000
000
000
000
000
000
05E
000
000
000
000
000
000
000
000
000
000
000
000
000
000
000
000
000
000
3FA
000
000
000
052
090
000
000
000
006
000
000
000
000
010
002
000
000
000
000
3DA
000
000
000
000
000
000
3BE
000
068
000
000
000
000
000
000
000
040
072
018
000
000
000
000
000
060
000
000
000
000
000
042
000
000
000
058
000
010
000
07A
000
000
000
39E
000
000
000
000
000
000
000
000
000
3CC
000
000
3E0
000
000
000
3F4
000
000
000
000
000
000
000
3BA
000
000
000
004
01A
3FA
000
000
000
000
000
000
000
364
000
000
000
000
3E2
000
3D6
000
05A
000
000
000
0AE
000
000
000
3F8
3F4
000
000
000
000
396
0AC
000
000
000
000
000
000
000
012
000
000
000
3BC
3D2
000
000
000
000
000
000
000
000
000
000
314
000
000
000
000
000
000
000
000
000
000
000
000
000
000
000
000
000
000
000
000
000
000
380
000
000
000
396
000
000
000
000
01E
38C
000
000
000
040
000
000
000
000
00C
000
000
01C
000
000
000
000
3D6
000
000
000
000
000
010
002
000
000
000
000
0D2
000
000
000
000
000
000
000
000
000
08A
000
000
000
000
076
000
000
000
000
3FE
000
034
000
000
000
000
000
000
038
000
000
000
000
006
000
000
048
000
068
000
000
03C
000
000
000
050
02E
000
000
000
008
000
000
000
000
3B2
000
000
000
000
000
000
000
000
000
000
3C8
004
034
000
000
000
35E
000
000
000
000
000
3BA
000
000
000
000
000
000
000
014
000
000
004
000
000
000
000
000
036
02C
000
000
000
3EC
000
060
000
012
000
000
000
000
000
000
38E
0EE
036
000
000
000
000
3AC
000
000
000
004
000
000
000
000
000
000
000
000
000
000
000
000
000
000
000
000
338
000
000
000
000
000
000
000
000
000
000
000
000
000
000
000
07C
000
000
000
000
000
000
062
000
000
000
000
000
000
00E
000
000
086
000
000
37E
000
000
3FA
000
000
000
000
000
048
000
000
000
000
006
000
000
000
000
000
000
000
000
000
000
000
000
006
000
06E
000
000
000
000
000
000
000
014
000
338
000
01A
000
002
052
000
082
07C
000
000
3EE
000
000
000
000
004
3FC
008
000
006
000
0B2
000
000
000
000
39A
3EE
000
000
000
000
000
000
000
000
000
3C2
3FE
000
000
000
000
000
3D2
000
000
000
000
000
09A
000
000
000
000
000
3B6
000
3D2
000
018
000
000
000
000
000
000
000
3F0
000
050
032
000
000
000
000
01C
000
000
000
000
000
000
000
000
3F0
000
000
3CC
000
000
000
000
000
000
000
000
000
000
3BE
000
000
000
000
000
000
000
000
000
000
000
000
000
000
000
000
000
000
000
000
000
000
000
000
000
000
000
000
000
000
000
000
000
000
000
000
000
000
000
000
000
000
000
000
000
062
000
000
000
000
000
000
000
000
000
000
000
000
000
000
002
000
000
000
000
000
000
000
000
000
000
000
000
000
000
000
000
000
000
000
000
000
000
000
000
000
000
000
000
000
000
000
000
000
000
000
000
000
000
000
000
000
000
000
3C8
000
000
000
000
000
000
006
000
000
000
000
000
000
000
000
000
000
000
000
000
000
000
000
000
000
000
000
000
000
000
06E
000
000
000
000
000
3D0
000
050
040
000
000
01E
000
000
394
080
000
05A
000
000
000
000
000
000
000
000
000
000
000
000
000
000
000
000
000
000
000
000
000
000
000
000
000
000
000
3C0
000
000
000
000
3C4
000
000
000
000
3EC
008
3D0
000
05C
056
000
000
000
000
000
000
000
000
000
00A
000
000
000
000
000
000
000
044
000
000
01C
000
000
000
000
000
000
000
000
03E
05A
000
000
000
000
000
3B6
000
000
000
000
000
000
000
03A
02C
000
000
000
000
000
000
032
000
000
000
000
000
000
000
3D2
000
000
000
000
3F0
000
000
000
000
076
000
000
000
000
046
000
000
000
000
000
000
000
3F2
000
000
000
000
000
000
3E2
000
000
000
000
000
000
000
000
3EA
000
000
000
000
000
000
000
000
000
080
000
000
000
000
000
000
000
000
076
000
000
000
000
000
000
000
000
000
000
000
000
3E8
000
000
000
000
3D8
000
000
000
000
000
000
000
000
000
014
000
000
000
052
000
000
000
000
000
000
000
000
03A
000
000
000
000
000
000
000
000
000
000
02A
000
000
000
39C
000
000
000
000
000
000
000
000
000
000
000
036
000
000
000
000
000
000
000
020
000
000
000
000
000
000
2D2
000
040
00E
000
000
3C0
000
052
000
000
00A
000
000
000
000
000
000
000
000
000
06A
000
000
000
000
0FE
000
000
000
340
030
338
068
000
000
000
000
3F8
000
000
000
08A
000
000
000
39E
000
000
000
000
000
000
000
3FA
000
3FA
000
000
000
000
06A
0AC
000
000
000
000
000
000
000
000
000
000
000
368
002
068
000
000
3D0
036
000
000
000
000
0E4
002
000
378
000
000
000
000
000
000
000
000
000
3FC
000
000
000
000
000
000
000
000
3EE
066
000
0C0
000
000
000
000
000
000
06E
000
000
000
000
000
000
000
000
000
014
000
000
01A
000
39E
000
000
366
000
2F8
088
000
000
000
00C
000
000
00E
000
04C
000
000
000
000
000
000
000
000
000
000
3B8
000
000
016
02C
000
000
000
000
04C
000
000
3DE
358
000
37A
000
000
000
000
000
000
000
382
020
000
000
022
000
000
000
000
000
000
000
036
000
000
3D6
000
000
000
3B6
008
000
000
000
000
000
000
000
000
000
000
000
000
000
000
000
000
000
3F6
000
000
000
000
000
000
000
3D8
060
000
000
000
000
000
03A
000
3A0
000
058
000
000
000
000
000
006
000
000
000
000
00E
000
000
000
000
3DC
3D0
000
000
000
3FC
000
07C
3EE
000
048
000
000
000
000
000
000
000
068
000
3D8
000
000
000
000
048
000
000
000
000
000
000
000
000
000
000
000
000
000
000
000
000
000
000
000
000
000
000
000
39A
374
000
000
000
000
000
084
000
000
000
000
000
000
000
00A
000
000
06C
000
000
000
000
000
000
000
000
000
000
000
000
000
000
3FE
000
3E8
000
000
008
000
000
000
000
000
000
000
3AE
000
000
000
000
000
004
000
38E
3EE
000
006
000
000
000
000
000
000
000
04E
000
000
000
000
000
000
000
000
000
000
000
000
000
05C
000
000
000
000
000
000
000
000
000
0EE
000
01A
006
04E
08E
000
000
000
000
390
000
000
000
000
000
000
000
000
000
000
000
000
000
000
000
000
3F2
000
3F0
000
000
000
000
000
000
000
000
004
000
000
000
000
008
000
000
000
062
000
000
000
000
0B0
000
000
000
000
3AC
37E
0F4
3E0
000
000
000
000
000
000
000
000
000
000
008
000
3DA
000
3FE
000
000
000
000
000
000
000
000
08C
000
000
000
000
398
000
000
000
000
000
008
000
000
000
000
000
000
000
008
3F4
000
3BC
000
000
008
000
066
000
000
01C
08E
000
000
3B8
000
000
000
000
000
000
000
000
000
000
06A
000
000
000
004
000
000
000
394
000
000
000
000
000
000
000
000
000
01C
01E
3F0
000
000
000
000
000
3F4
000
000
000
3B0
000
000
000
000
000
070
000
000
000
000
08E
000
042
000
000
000
078
000
000
000
000
022
000
000
000
000
00C
000
01A
010
000
000
000
000
000
000
000
000
376
03A
000
000
000
000
000
008
000
0DC
000
000
000
000
000
000
00E
000
018
000
058
000
000
000
000
3FE
000
000
000
000
000
00E
000
002
000
000
000
000
000
000
3FA
000
000
000
000
000
000
072
000
000
000
000
000
000
0FA
000
39A
000
000
000
000
002
000
002
39A
000
000
000
000
02E
000
000
048
000
080
000
000
000
3C4
000
000
3FE
000
3B4
3FC
37A
000
000
000
000
3BC
000
000
000
000
000
000
000
000
000
000
000
000
000
052
016
000
000
000
000
000
000
000
000
000
006
000
000
000
000
000
3CA
000
000
024
000
000
000
000
000
000
000
00E
000
000
000
000
000
010
000
3F4
000
046
000
000
000
000
000
000
000
000
000
080
000
000
08A
000
3D8
000
3AE
000
000
3F8
000
000
3B6
000
000
000
000
000
048
07C
052
000
026
000
3E4
38A
000
000
000
000
000
000
098
000
000
000
3DC
000
000
000
000
000
000
000
000
000
000
000
004
000
000
000
000
000
000
000
000
000
000
000
000
000
000
000
000
000
000
000
000
000
000
000
000
000
000
004
000
00A
000
000
000
000
000
000
000
000
000
000
000
000
000
000
000
000
000
000
000
000
000
000
000
000
000
000
000
000
000
000
000
000
000
000
000
000
000
000
000
000
000
000
000
000
000
000
000
000
000
000
000
000
000
000
000
000
000
000
000
000
000
000
3E6
000
000
000
000
000
000
000
000
000
000
000
000
000
000
000
3EA
000
000
000
000
000
000
000
000
000
000
000
000
000
000
3F6
000
000
000
000
032
000
000
000
000
000
000
000
000
000
000
000
000
000
000
000
000
000
000
000
000
000
000
000
000
000
000
000
000
000
000
000
000
000
000
000
000
000
000
000
000
000
000
000
000
000
000
000
000
000
000
000
000
000
000
000
000
000
000
000
000
000
000
000
000
000
000
000
000
000
000
000
000
000
000
000
000
000
000
000
000
000
000
000
000
000
000
000
000
000
000
000
000
000
000
000
000
000
000
000
000
000
000
000
000
000
000
000
000
000
000
000
000
000
000
000
000
000
000
000
000
000
000
000
000
000
000
000
000
000
000
000
000
000
000
000
000
000
000
000
000
000
000
000
000
000
000
000
000
000
000
000
000
000
000
000
000
000
000
000
000
000
000
000
000
000
000
000
000
000
000
000
000
000
000
000
000
000
000
000
000
000
000
000
000
000
000
000
000
000
000
000
000
000
000
000
000
000
000
000
000
000
000
000
000
000
000
000
000
000
000
000
000
000
000
000
000
000
000
000
000
000
000
000
000
000
000
000
000
000
000
000
000
000
000
000
000
000
000
000
000
000
000
000
000
000
000
000
000
000
000
000
000
000
000
000
000
000
000
000
000
000
000
000
000
000
000
000
000
39A
000
000
000
000
000
000
07E
000
000
000
000
078
346
000
000
000
09A
000
000
000
000
3BA
000
000
000
3EC
000
058
000
000
000
000
000
000
3A8
000
3FE
000
3F0
000
000
000
000
010
000
06A
000
000
048
000
000
000
000
32E
000
38A
3A0
018
000
000
3A6
3F4
000
000
000
000
3F6
3FE
000
000
000
06E
322
000
000
0A2
000
000
068
000
370
000
3B4
000
01E
000
3AA
000
000
000
000
000
000
3C4
000
3E6
000
03A
000
000
3FE
000
000
000
000
064
026
000
000
072
000
000
000
000
000
000
000
05C
000
000
000
000
38C
000
000
3E6
3A4
000
000
3EE
000
00E
000
04A
000
000
000
000
000
028
3E2
000
000
3B0
000
000
000
000
0BA
02E
000
004
00A
3DA
000
000
000
000
3A6
000
000
05E
008
048
00A
000
094
000
3CE
000
000
3A4
000
000
080
000
000
32E
000
000
000
08E
062
000
000
000
000
000
000
00E
000
000
000
000
39A
000
000
000
37C
09C
3C4
000
000
000
06E
000
01E
000
000
020
000
01E
000
000
000
000
000
000
000
000
000
000
000
000
000
000
000
000
000
000
000
000
000
054
000
000
072
000
000
3F6
000
000
000
032
000
000
068
3B0
000
000
3FC
000
000
000
000
00E
000
000
000
000
000
000
000
000
000
000
056
000
000
000
000
3C8
00A
000
000
000
000
000
000
000
000
000
000
000
000
000
000
000
000
000
000
000
000
000
024
000
000
3FE
000
000
000
000
000
000
000
096
000
000
000
000
000
000
000
000
000
000
000
000
000
000
000
000
000
000
000
000
000
000
000
000
000
3DC
000
002
000
000
000
000
000
000
000
000
000
000
000
000
000
000
398
000
000
000
000
000
000
000
000
000
000
3DC
000
000
000
000
016
000
000
000
000
000
000
000
000
000
000
000
000
082
000
000
000
000
000
000
000
000
000
000
000
000
000
000
000
000
000
000
000
000
000
000
000
000
000
000
000
000
000
000
000
000
000
000
000
06A
000
04A
000
000
000
000
000
000
000
000
000
000
000
000
000
000
000
000
000
000
000
000
000
000
000
000
000
000
000
000
000
03A
000
000
000
000
000
000
000
000
000
000
000
000
000
000
000
000
000
000
00A
000
000
000
000
000
000
000
000
000
000
000
000
000
000
000
000
000
000
000
000
000
000
000
000
000
000
000
000
032
000
000
000
000
000
000
3E2
000
3CA
000
000
000
000
000
000
000
000
000
000
000
000
000
030
000
000
000
000
000
000
000
000
000
000
000
000
000
000
000
000
000
000
000
000
000
000
000
000
000
000
000
000
000
000
000
000
000
000
000
000
000
000
000
000
000
000
000
000
000
000
000
000
000
000
000
000
000
000
000
000
000
000
000
000
000
000
000
046
000
000
000
000
000
000
000
000
000
000
000
000
000
000
